/**
  ******************************************************************************
  * @file    network_data_params.c
  * @author  AST Embedded Analytics Research Platform
  * @date    2025-01-10T11:28:22+0100
  * @brief   AI Tool Automatic Code Generator for Embedded NN computing
  ******************************************************************************
  * Copyright (c) 2025 STMicroelectronics.
  * All rights reserved.
  *
  * This software is licensed under terms that can be found in the LICENSE file
  * in the root directory of this software component.
  * If no LICENSE file comes with this software, it is provided AS-IS.
  ******************************************************************************
  */

#include "network_data_params.h"


/**  Activations Section  ****************************************************/
ai_handle g_network_activations_table[1 + 2] = {
  AI_HANDLE_PTR(AI_MAGIC_MARKER),
  AI_HANDLE_PTR(NULL),
  AI_HANDLE_PTR(AI_MAGIC_MARKER),
};




/**  Weights Section  ********************************************************/
AI_ALIGNED(32)
const ai_u64 s_network_weights_array_u64[86835] = {
  0x3ecb242e3ed12c4aU, 0x3e3433bf3eb47d70U, 0xbdee7bb7be231646U, 0x3ddfd9523e61d069U,
  0x3b4798263e25bab2U, 0xbf04d2ca3d726f7dU, 0x3f19c1e13ee03147U, 0xbc48a615be7e71c1U,
  0xbe203e253f0c575bU, 0xbe8f170d3c1c99efU, 0xbd7158da3e2662a9U, 0x3f26f6e5be40f30fU,
  0x3d3c594cbd2ecc1dU, 0xbc6c3e453f025d6aU, 0x3e14599a3c3b2bd8U, 0x3f2e2d3b3e22172cU,
  0xbe3337513e4604f0U, 0xbdca3d983f0c70e9U, 0xbe88afa9beaac2aeU, 0xbe9283123e85ceb7U,
  0x3e3cd2063e5600a2U, 0xbf0e33bd3ebd865eU, 0x3ef0c703beccdbadU, 0xbe7051f23dfa9749U,
  0x3df333b03f2c0803U, 0x3f16371fbf2cd8a9U, 0xbeada2bbbe98ad65U, 0x3f184802bd6767efU,
  0xbef5f1dfbd6575dcU, 0xbd9edb09bddfc2a8U, 0xbec9150c3ea924cdU, 0xbd697ee0be258878U,
  0xbd8cd1df3ebe330bU, 0x3f18249b3d22ad5eU, 0xbc6ecb823f0494a2U, 0xbd83afa83eeb62a5U,
  0x3f13643b3f065acdU, 0x3e3773003dbcad5fU, 0xbd2f99a9bca44259U, 0x3dda7b5fbe421afcU,
  0x3f2416ad3e0c80a2U, 0xbe2da19dbdddab63U, 0x3f1317293d925ac4U, 0xbebb2201be2799a7U,
  0x3df5b3c6bdd344ffU, 0xbf4570a43ea1d904U, 0x3b9fc80fbe7e2c74U, 0x3ebbe4b9bf071778U,
  0xbad79a3dbdbeacb3U, 0xbe232b8b3f1fa93aU, 0x3ec8e8273f19ed6bU, 0x3f2105c8bc806d88U,
  0x3da8e62e3e2ae1f1U, 0xbea1c48fbefb66b3U, 0x3ef3a1a23eeea341U, 0xbea32fdabdf53c31U,
  0x3e9df2d8bd1c6eafU, 0xbd543e613e9f4973U, 0xbec89672be9de005U, 0xbdf19041becbd70aU,
  0x3f02266f3f0c9b3cU, 0xbd92c5773e98018cU, 0xbddaf643be9f4cbfU, 0x3cd457593f12e721U,
  0xbe7cd6223e015e93U, 0xbe097db03e7f513eU, 0x3bad19f1beffcf2eU, 0x3ec709b43d43ecdbU,
  0x3ed5eb09bd76495dU, 0xbd1f0c983d6e7bb9U, 0x3e6a74a13e89a159U, 0xbe3f72fbbf2e54b3U,
  0x3b9409743a802740U, 0x3bcd9f9e3be7e370U, 0x397004003ddd64d0U, 0x3c0dd30b3ca4970cU,
  0x3bf7cf0a3a9d7db0U, 0x3c3d98783b4724a0U, 0x3b710e843b9aaf30U, 0x3b607940b9be9f30U,
  0x3d1f9aafbd63c209U, 0x3d1f83f2be04ece0U, 0xbd04df5ebc77918cU, 0x3d036222bd788d31U,
  0x3c6b9f1ebc104c99U, 0xbd8c529bbd982e2eU, 0xbd9817963cbe53a1U, 0xbd59d1fabdd865faU,
  0xbd5e9061bd82e831U, 0xbcf0a057b8b0c58aU, 0x3bc4aaf03dc95c02U, 0xbd96c5903d4ab731U,
  0xbd33fa8ebdf42ca8U, 0xbd49794d3dba0854U, 0x3dbd49163c0a5080U, 0xbcf76264bdc45f96U,
  0xbca28242bcdfca23U, 0xbdaeb1d93db20be5U, 0xbe021ef53dc4c1b1U, 0xbcbc8c413bf50bd0U,
  0xbd990da1bd6e7614U, 0xbd85f13c3d8394c2U, 0xbaf3958fbd148b39U, 0xbc68066f3c5b1999U,
  0x3d96d3013de05710U, 0x3dc4395b3e18a655U, 0x3d9fdd623da90089U, 0x3e0ebb613c40e076U,
  0xbcf08ec33dd1b8d3U, 0x3e5bcf853d64cae5U, 0xbccbb9273d76368aU, 0x3e0a98a53c537a05U,
  0x3de294863e23232dU, 0x3bbd6bcdbcb6ff31U, 0x3e4147d13b5840e2U, 0x3e094afe3d305d5cU,
  0x3e1579363e1e560dU, 0x3d8a67f6b9dbad82U, 0x3db463d13e4b5810U, 0xbdc1b3c83e0c22baU,
  0x3cf790afbd941e35U, 0xbd70805abdc62b05U, 0xbd03dc883c413ed2U, 0xbd621cbb3d368d2cU,
  0xbde23a6ebd816fc0U, 0xbe82d459bd1b14cbU, 0x3d6d3cc6bd991c96U, 0xbd65798fbdea7c24U,
  0xbe067104bd63c41cU, 0xbceaa7613de29435U, 0xbe5003efbb0e4188U, 0xbd7b0efd3d50b080U,
  0xbdaf0a3bbd17361cU, 0xbda1702a3d121d88U, 0xbda237ddbd9bcfe5U, 0xbd8c57f0bc411655U,
  0x3dcfdd053da3c34aU, 0x3d921848bce6670aU, 0x3d7a5b6b3b4e37b4U, 0x3d68673e3c51607eU,
  0x3bdf9eea3daf5190U, 0x3d914c33bcfc1409U, 0xbd0ddec83dc15e84U, 0x3d78fa5e3d3daec2U,
  0xbdf58583bb81d4efU, 0xbd8279ffbcb469aaU, 0x3d81c1a03cce72a1U, 0xbd2024f0bb77a8f4U,
  0x3d120e123dd22c9eU, 0xbce9015fbc53f5d6U, 0xbe2004883e177919U, 0x3d903a363cc048aaU,
  0xbd80d845bbbfffaeU, 0xbda504483bce3308U, 0x3da6d8603bb81ff7U, 0x3d0e11afbc582affU,
  0xbd33d0f83bb3f03eU, 0xba83012abd008f12U, 0xbd8c6da43d50060aU, 0xbc813c0dbcbcb4f7U,
  0x3d2c94c13cd742e3U, 0x3d2a808a3da3d5bfU, 0x3dfb86e03b998c11U, 0xbd445eb6bccb17a1U,
  0x3cb6f4dd3da08d85U, 0xbd8db6ff3da3d107U, 0xbdf80a443d63c85dU, 0xbc889eed3ccc01adU,
  0xbc6454793becc16eU, 0xbdddd83ebdecf1d4U, 0x3df44da33d0dbea8U, 0xbd7a25dbbc653e45U,
  0x3b2a53473beb8c9cU, 0x3d3a11fdbc03a27aU, 0xbe161a7dbce531baU, 0xbd378002bd026193U,
  0xbd940ff3bdaf8d10U, 0xbdacbd8cbc88830fU, 0xbdcc07213d1a92b0U, 0x3b845e62bc7ffa18U,
  0xbd667e1cbd93a3b4U, 0x3cee092a3dade3e4U, 0xbda94e3ebd870fb4U, 0xbe08566dbd1fca18U,
  0xbd8416eabc7124a7U, 0xbe1f3ec3bdc717c1U, 0x3d14c9783dd19fa1U, 0xbdb6a0743d9647b4U,
  0xbdec4128bc848e47U, 0x3d9917bcbc44c78cU, 0xbd5e05603d2f5dd8U, 0x3d6e2f783c97592eU,
  0xbde29466bd07b48aU, 0xbe303ca1bd56880dU, 0xbd05b20b3db93128U, 0xbe406a69bcb9306cU,
  0xbd15fbdabcfd9465U, 0xbda70a8abcd5b496U, 0xbe44e284bd5562b8U, 0x3ce957babd8a0167U,
  0xbe5b5e80bd616bcbU, 0xbe0100453c371ccbU, 0xbdede0c73dbc572fU, 0xbdeec8793cb840aaU,
  0xbcfdd23fbd965d55U, 0xbda70409bd8441fdU, 0xbe1f8f16bdd8b102U, 0x3d45eed73d62c19bU,
  0xbdcd19773d1eafa7U, 0xbdaf87f1bc759858U, 0xbd0452ba3d9fd8f9U, 0xbd2374b43d4bc825U,
  0x3d9a77423dbb6cb0U, 0x3ccc7b9e3d1e6c5dU, 0xbdfe63833b535cc8U, 0x3bccbd343e18107dU,
  0xbcc8d0143d6bc310U, 0x3db247b73e0f796cU, 0xbd3a5aca3c05a221U, 0x3d3df898bcd5ed16U,
  0x3d6188063d0ebf62U, 0x3d246bc93e185168U, 0xbce1aa0f3c9b5ff8U, 0x3c1e82233dd5396bU,
  0x3d9926ed3c8f67edU, 0x3deb4abe3d44a4f0U, 0x3dd5b6be3d926395U, 0x3df0c8313d3abba0U,
  0x3d9193943d15fe47U, 0x3d59d3673d541dbdU, 0x3df562f63d35dc93U, 0x3bb69144bbf22fedU,
  0x3cf3c4ca3d0e960bU, 0x3da3a3fc3e380fa0U, 0xbd220c623d909942U, 0x3d424937bc66f937U,
  0xbd32afa03c99e0e5U, 0xbc2630e73e161be6U, 0x3d12b66a3d8e4358U, 0x3d847892bdd35fb2U,
  0x3e0013e63dacdb8bU, 0x3e05ac593d3b0434U, 0x3e346bae39149363U, 0x3e13e63b3d5de102U,
  0xbc2554f23c537f2cU, 0x3db576323d042fddU, 0x3d97e2c53d2e80b9U, 0xbbb1c878bd81844cU,
  0x3d9b1daabc8edee3U, 0xbc8708da3dec420aU, 0x3d97943eba449f11U, 0x3dacae583c9dd18aU,
  0xbd3bcd75bd38abe9U, 0x3d0c0b4f3db8ec47U, 0x3d941d013d8a8c2eU, 0xbd68330abe0e1139U,
  0x3dd49ffabd716861U, 0x3cb5ffd33db708e3U, 0x3cb32c653caf90a6U, 0xbbdbd8193cf5610cU,
  0xbc84c3a0bd8b7c21U, 0xbe3589f03d499ee0U, 0xbd727e5ebc775e87U, 0xbde444ccbd8bce4cU,
  0x3d89098abd23d6eeU, 0x3cf48aa83e75c070U, 0x3c1ab6883d158a16U, 0x3dde27d0bc2d5bcfU,
  0x3cdf868ebc59f494U, 0x3c6588803e6aa981U, 0x3c707deebb1908e8U, 0xbda6849ebe34cc91U,
  0x3de6e422bc6fa8adU, 0x3e2f7d543e20e8f8U, 0x3e71f75f3bc14035U, 0x3e155534bd2aafbeU,
  0xbbabbfe8bcf1b159U, 0xbd863bb63db1d692U, 0x3dfa412f3c5f6cb4U, 0xbdc6d775be2065b7U,
  0x3e1c06763ceef97dU, 0x3e3aa2383e16ea21U, 0x3dca00303d546f96U, 0x3e3e78273d235f75U,
  0xbcd3539d3bfbb114U, 0xbc9f243a3d841d2cU, 0x3dce3837ba690d31U, 0xbe099277be1cbe08U,
  0x3db89d453d51ebd6U, 0xb94c977abcd198d4U, 0x3e12d6803e08632fU, 0xbdc6dd2fbd49333eU,
  0x3d8b9486bc6d510cU, 0xbd8030cd3ce5e07dU, 0x3e0ba5183d8e9b59U, 0x3dc7cde13cd49251U,
  0xbc99a2e2be226c01U, 0xbda500e7be088907U, 0xbdb6a690bce6cd67U, 0xbd934885bdbe76c1U,
  0xbdc3caf8be55d020U, 0xbe50c99abe1139e7U, 0xbd08049cbe3c48b5U, 0xbe33e2dbbe9b3b18U,
  0xbdac34e4be5d4bbeU, 0xbe21f0e7be3ef726U, 0xbe4d5f103d7b7c92U, 0xbdf560e3bd21c0dfU,
  0xbdde4981be5c87e7U, 0xbe446328be17ccb7U, 0x3d0857aabe015eb0U, 0xbe39840abe1c7bf3U,
  0xbe01932cbe3e3877U, 0xbd97b04abd29ad00U, 0xbe730bb83d67c15cU, 0xbdb228d9bd25e729U,
  0xbe8b1984be36cf5eU, 0xbd312c1b3a7a8786U, 0xbd2ba6d5be2fc551U, 0xbe36ace8be8cbf5bU,
  0xbd9eaedabbaa32ebU, 0x3a091d723d9c98d6U, 0xbd3997f83cda6bd4U, 0x3bc5cc3d3d06d5d4U,
  0xbdc07e8f3d3b183eU, 0x3d7243563bb446a9U, 0xbd37c908bda219d8U, 0x3d7b90d5bd103d7bU,
  0x3e18f84d3d8df06bU, 0x3e0170343e19631aU, 0x3dcee74cba29905fU, 0x3dfeea203d784cf3U,
  0x3e3500083e19741eU, 0x3e19b4073d73384eU, 0xbb8cab793e16a3e3U, 0x3e19bb613e675fc7U,
  0x3d90389a3e0f36f3U, 0x3e0450c93e317730U, 0x3db9c0be3ccc2ce1U, 0x3e19b12d3c65bb4cU,
  0x3e1eef563e077bc9U, 0x3e02b7d93df675b4U, 0x3c1246883dc31dfdU, 0x3e2105b13e04a5d2U,
  0x3de1eae53e1f97aaU, 0x3d9f24f23cc689e1U, 0x3e6672c63d3158d9U, 0x3dc5e7e33d13fcfbU,
  0x3e17d5b83e3a3d44U, 0x3cc04e033ce11c33U, 0x3dd1f58f3e576b34U, 0x3dbe60213deb777aU,
  0x3d92deb83db2d338U, 0x3db2ced23e702d0aU, 0xbc27243cbbe4c32cU, 0x3e117d8f3ad528e3U,
  0x3dd0be293d6c54abU, 0xbb6707ba3dd601b6U, 0xbd9b7a573d2a6777U, 0xbd3341ba3c6821aaU,
  0x3e7031193dd55c46U, 0x3e43f48b3e43d32fU, 0x3e0fd6a53c80eae6U, 0x3df6b5933d74cd26U,
  0x3ceffd853e1b55f3U, 0x3db6b1753ded1945U, 0xbc2c8b803dbc6e77U, 0xbbf66e283c92e7c6U,
  0x3e1116033e60b116U, 0x3e406bb83e8e1a1dU, 0x3d9bbb2e3ccf2a1cU, 0x3e388f6e3cfadc82U,
  0xbc89b62c3e290018U, 0x3dd42c163e011c10U, 0xbc81b6493e3ddff4U, 0x3e2c63dcbc9fcee9U,
  0x3e5d1d403e8bd7b9U, 0x3e831bd63e6dc84cU, 0x3e2e7fa43d81aba6U, 0x3e9b6fb7bc8f491eU,
  0x3e925b8d3e4f0b64U, 0x3e99915a3d7a7203U, 0x3d87c9dc3e83f0c3U, 0x3dfffebb3e5d1011U,
  0x3ecc8d993e969616U, 0x3eec80aa3ddd2e25U, 0x3e89f5a63d188241U, 0x3effe3733d8a4426U,
  0x3e64e5443e9c3712U, 0x3e78c4c73da30c02U, 0xbca4b56c3e8c912aU, 0x3e2c076b3d92ee7eU,
  0xbbf73b833d501d54U, 0xbdb2ca12be16a958U, 0x3ddfe853be2b25deU, 0xbe05275fbe8969a2U,
  0x3e0a91673cf424fdU, 0xbdcdd658bd1829a8U, 0xbd56be843d953a6cU, 0x3d92ae883cb82f2aU,
  0xbdd363b1bd1340b4U, 0xbd982323bdbe73baU, 0xbe03171739dcc8a0U, 0x3bcb51c5bda42bdcU,
  0xbd107689bd06c0e2U, 0xbdb133f2bdeb0af0U, 0xbe0bc4f5bda7c5ceU, 0xbdb3bc36be05ac77U,
  0xbd704ab7bdd54217U, 0xbdc14815bd86a6ceU, 0xbd936fbc3d23d684U, 0xbdef4690bcad401bU,
  0xbdb560b9be09c998U, 0xbd387b49bdb90b38U, 0xbd62ac27bd707f98U, 0xbdf6a690be11c97fU,
  0xbd4b84b7bdc4a739U, 0xbd912d63be568988U, 0x3c672f663dc157d6U, 0xbdc7f35c3bfd5fe4U,
  0xbde38300be06daf7U, 0xbcd6439abe4746fbU, 0x3b9f28a1bd8ca8c9U, 0xbd708ec7bcf8bb82U,
  0xbe45bc13bdeabbb8U, 0xbe07578cbe28a2a5U, 0xbe36acdb3d8e7f41U, 0xbdea9cb03d63b023U,
  0x3d203e1bbde063d3U, 0x3d9c6c08bd68019dU, 0x3b2ffd1ebccfe23dU, 0x3d7e987b3c930e2dU,
  0xbadfe913bd9de24aU, 0x3d94a2d23d86ceabU, 0xbe473c103d8f80b1U, 0x3dd037833d9d8d17U,
  0x3e1f9cbf3cd1b314U, 0x3e3bc1363cd77b88U, 0x3e00f5bd3d49b89eU, 0x3d749c2c3e003e88U,
  0x3dcf6b453cdb8d6aU, 0x3e0e31bf3e39515dU, 0xbd0f23c13d89f9fbU, 0x3e148d233ce98eebU,
  0x3de95e633e00bf6eU, 0x3e04beb43dbdb033U, 0x3e46d3903be11c66U, 0x3d82edf33d89a2a3U,
  0x3e3313903e147db8U, 0x3e5a26fc3e1d76edU, 0x3e32e5e03d98f9d4U, 0x3e803863bcb2d90cU,
  0x3e5c87593e28a257U, 0x3e63f9033de3b290U, 0x3e0798653e3c878cU, 0x3de50c193d37b43dU,
  0x3e764d633dd9cb5aU, 0x3e8e787b3eb58ed4U, 0x3e0572313c8b0cf9U, 0x3e7b57063cb3006cU,
  0x3e3c1ef83dea6b2fU, 0x3e8e83e43e002779U, 0x3e5fc0363df5f8d5U, 0x3df0d5fcbbaa6f56U,
  0x3e8fd85b3e335ea8U, 0x3e87ae233e917765U, 0x3e8939c13dbb47a4U, 0x3eae7dea3cc62790U,
  0x3e8606db3e330e93U, 0x3e93e7993e42a55fU, 0x3e6543723e88e5b2U, 0x3e802ad83de0ca5dU,
  0x3e8b10243e3011aaU, 0x3eb7c0a63ea3944cU, 0x3e1e06e53d926fbaU, 0x3e9b181bbccd788dU,
  0x3e5e59543e4fdb8fU, 0x3e6243ba3e4ada38U, 0x3e28ceb13dd42aa1U, 0x3e8afcfd3e491fe8U,
  0x3e6f1b493e982e68U, 0x3e8a1da43e8bf750U, 0x3e5d81da3db67869U, 0x3ea2f6d9bc0cfcdbU,
  0x3e284fce3e9e1503U, 0x3e4934dc3dd3f7ffU, 0x3da3c1a23e8733b1U, 0x3e83be6e3dab2282U,
  0x3ec2f4943e9c7d48U, 0x3eefe0f23e5a8f9aU, 0x3e94d9fd3d323696U, 0x3eec019f3d224364U,
  0x3e9218bf3ee95d5fU, 0x3e8fb3673dec5458U, 0x3e1fff8f3eae34caU, 0x3e536f253e8d697bU,
  0x3cb762063ceeb2faU, 0xbd516985bda207dcU, 0x3d2853f13d763c1fU, 0xbb94a3523dfcfc3fU,
  0xbdc0c42dbd454facU, 0xbe56525abdf05676U, 0xbddc7b5c3d7a410bU, 0x3c7e001cbe365403U,
  0xbc785f27bc118d43U, 0x3d640014bd4eed5eU, 0xbe0121e2bc7a5f89U, 0x3d9bc9e3bdefb2afU,
  0xbddc6eeabd7b523cU, 0x3db36501bdfdae9cU, 0xbe425431bda9dca6U, 0xbe18c300be1431deU,
  0xba8b7c02bb2e5908U, 0xbe2e1f89bd2e8996U, 0xbc13890f3dae4aa3U, 0xbe0072053d912c39U,
  0xbbaa2d3dbd91974aU, 0xbdd109113c289202U, 0x3c43b352bd738d85U, 0xbd48b8b63d9f38b7U,
  0xbd74b421bd5a2c69U, 0xbe4b51cebe2f52e1U, 0xbc9b945b3e010f40U, 0xbe5d912b3df2ed09U,
  0xbdddd064bd705222U, 0xbe448068bdb06cfcU, 0xbc6de28dbb0f599eU, 0xbdb499f33ded0e05U,
  0xbe692726be525238U, 0xbe840f9abe333844U, 0xbe02a67e3dea8827U, 0xbe861e1b3d8b6c6eU,
  0xbe6b5d8bbe4fea9dU, 0xbe96aa46be1d4e88U, 0xbe74053ebe11a68dU, 0xbe2ad487be15865bU,
  0xbe6a993ebe1c37a1U, 0xbdd533f4be08e20bU, 0xbe9f30853d80b64bU, 0xbe0f9f6f3d2d704dU,
  0xbea650cbbe48743aU, 0xbdce21f2bdba6a92U, 0xbe351aaebe124645U, 0xbe1c2944be615a7fU,
  0xbe1f57cebd8afe98U, 0xbc9f163a3ca5ae56U, 0xbdfa41ca3da5cedfU, 0xbce1e5f03d9988c1U,
  0xbcd6c968bb3d5a25U, 0x3d8296f03c94bc75U, 0xbd911f82bd7c467eU, 0x3db581173dd08c1dU,
  0x3d0f86ba3d379699U, 0x3ce340f1bc1c4f34U, 0x3d2ccf163d0effeeU, 0x3cd2c90c3ccd3606U,
  0x3d4b356d3e472206U, 0x3e4aadf3bdbbe7b1U, 0x3c8ce2f63e162428U, 0x3e189ae53e2810f3U,
  0x3ced20fa3d84fd96U, 0x3cfccd06bd14c491U, 0x3db693cd3d1b32f4U, 0x3d74b1833e1a758bU,
  0x3e4c84773e80c517U, 0x3e8fabf8bdc1fe1dU, 0x3d860a733e8df29bU, 0x3e4261a43e535ac3U,
  0x3d11cbb73db628feU, 0x3d296b4b3d810904U, 0x3cc413833d47ce6aU, 0x3dfb5ced3db264b2U,
  0x3e3b26c53e52bbb0U, 0x3e12f464bca1c350U, 0x3ccc35a53e426af9U, 0x3e6e95933e93507cU,
  0x3c972fc83decb7cdU, 0x3dcfff7d3e260404U, 0x3df9eb953c38b830U, 0x3dd885a13d53215aU,
  0x3e2f36df3e3f1f21U, 0x3e5e5ad83bbe893fU, 0x3d9964313e2365e4U, 0x3e5e333e3e905f83U,
  0x3bc2e4a03e50187cU, 0x3da7f8543e0c16a9U, 0x3db2752d3d8d6b0aU, 0x3db9566b3cc58d20U,
  0x3e8216283e866dfeU, 0x3e630d403d578d9fU, 0x3d17e04e3e8b5139U, 0x3eb680983eac1d86U,
  0x3e20df6e3e3ba005U, 0x3e8287203e283a1aU, 0x3e60dec93bd0f732U, 0x3ea42b703d3d92d4U,
  0x3e5ba12a3e81b0b1U, 0x3e8f664b3d2e76d0U, 0x3e2f35c83e450a24U, 0x3e35112c3e2b8fd4U,
  0x3c5fd20abbbca9fbU, 0x3d5e96d33ca73782U, 0xbd0d7bddbd9f685bU, 0xbc59e2373cce05b2U,
  0x3c974ec73ca128c6U, 0xbd2d9def3cd364daU, 0xbd528a9bbd07b2a3U, 0xbd4700ec3db49c50U,
  0x3dd0a3f93d61d0faU, 0x3db31cba3d1142b2U, 0x3d7084cabbcbd8e5U, 0x3e3e4b6bbe51b881U,
  0xbcb477fd3bd9c93dU, 0x3ba470f4bd4182e9U, 0xbcd1d9e8bc8d726dU, 0x3cc862943c927e18U,
  0x3dfe04583db775a8U, 0xbd2356563d55f14fU, 0x3d8126cc3e26a426U, 0xbba21036be88b1dcU,
  0x3d505ebe3dc45cbbU, 0xbe33727fbc184d78U, 0x3dae34083cd7bafcU, 0x3caa433e3cad913cU,
  0x3d2c7600bcc18b5fU, 0xbdf42452be33333bU, 0x3d7c40c33e5e5b4fU, 0xbe13b95a3dc62122U,
  0xbd2e2084bce2f412U, 0xbe81556ebe370bbdU, 0x3d602c2a3db9826fU, 0x3d4156943c0db9d7U,
  0xbde3f16fbe090310U, 0xbe4a4ad8bde201e2U, 0xbd4a30303da553a6U, 0xbe707b16bc1781bdU,
  0xbe813371be442653U, 0xbe7bfde3bd55c8acU, 0xbe4037b8be43f50fU, 0xbd89b30abe831f23U,
  0xbe5030d0be57bfb8U, 0xbea3764abea126c1U, 0xbdf958c93d86c0b1U, 0xbe9419c93d7830d0U,
  0xbe277d61be8d4c52U, 0xbe35b99cbe91153bU, 0xbe9af53dbe2146d7U, 0xbe309d3dbe00ff3eU,
  0xbe72b15bbe161321U, 0xbe104c29bdeb1a58U, 0xbe9019afbcb096e5U, 0xbe6f2e7dbbde3709U,
  0xbe2fb5f8be177833U, 0xbdfe89c4bdf7fcaeU, 0xbe8ae032be5e8a65U, 0xbe6c35e3bdfbdbe6U,
  0xbe5cc83ebd898974U, 0xbe3b8265be72bd8aU, 0xbe1422253c8fc20dU, 0xbe01462c3d891e2fU,
  0xbddfd635bd1e2594U, 0xbd377b7bbdf3ee3cU, 0xbe16837fbd115c83U, 0xbda4c7a6bd5474bbU,
  0xbdfe93bdbe24aca6U, 0xbde1c57fbe9b4c15U, 0xbe17d7263d5e9afbU, 0xbe3504f83cc4fad4U,
  0xbc84a2f3bd93b88bU, 0xbda71f22be693ae3U, 0xbe8e57ecbdb49944U, 0xbe106870bca6c4d3U,
  0xbed11347be580bcdU, 0xbeb11d5bbe6cc15fU, 0xbe6daea23cbb6ae1U, 0xbe9ebf5c3db92c1bU,
  0xbe58bcb9be419fb1U, 0xbda4d198be09d751U, 0xbebc1786be15e8e5U, 0xbd923cddbe02eec8U,
  0xbe6a730dbe2eb9c3U, 0xbe0c2969bdd1eb58U, 0xbe0316553d039b2eU, 0xbe21833ebc813c9fU,
  0xbd98cdb7bd6bb5f2U, 0xbcd2f514bc9c350cU, 0xbe7c188bbe150762U, 0xbdbc272abc1ff9e7U,
  0xbe801cc2bd39d874U, 0xbe1da45bbdecaab1U, 0xbdd8aa253bf49c87U, 0xbe060e553d5674f2U,
  0xbdcfa9563c17a3c9U, 0x3dbc3555bd311004U, 0xbe5ae62dbe056fa7U, 0x3d31615abbc246c1U,
  0xbdcd265f3c6e422bU, 0xbda8303cbd32fb1bU, 0xbdc84a7e3d37759cU, 0xbc516ac83d0e9e25U,
  0x3da380e53e080a19U, 0x3e027b1f3da361b7U, 0xbe3292ecbc2e64daU, 0x3d701b9e3dba7093U,
  0x3c7fb2fa3c26c1d8U, 0x3d8ae11d3cb94e0aU, 0xbd3d045a3d4e4b55U, 0x3d214f543cf8650bU,
  0x3d598c65bd15ae6bU, 0x3c1fed36bd46916eU, 0xbd3e91e23d2e6bf2U, 0xbc3641d13d167d33U,
  0x3da1328b3d8a816cU, 0x3dd1dbf63cead585U, 0x3d951fab3c7692c2U, 0x3ddc29f53d8a2f3dU,
  0x3dda64863dcdd2b1U, 0x3e481dee3cde6fdbU, 0x3c1bda3a3d3fbd49U, 0x3e1cad343dd244efU,
  0x3e0ef0423df53a5bU, 0x3d72c501bcee1926U, 0x3c50fd1fbdce106aU, 0x3d4ef63a3e120b9cU,
  0x3e26ed833df2500fU, 0xbcf47ba0bd541cd6U, 0xbd99a74c3e15a5bfU, 0x3dca39813e09872bU,
  0x3d511fe23b94d0deU, 0xbd074046bdff5070U, 0x3d3f88d93df58d55U, 0xbd8e186e3d3b41a9U,
  0x3d48ab203cc69af2U, 0xbe3f1ca1bda2a9e6U, 0xbd57733c3d90c7caU, 0xbcc5c4eb3d78bf56U,
  0xbdaa6397bd961937U, 0xbe4ceb17bdfc41a3U, 0xbd5cd3663d8ce853U, 0xbe30f70abd74e530U,
  0xbe8fcca5bdf553c7U, 0xbe8cf8c1bdd3b537U, 0xbe58c04ebd223228U, 0xbdda4925be72c53cU,
  0xbde8fa2ebe486420U, 0xbe0e532fbe460124U, 0xbc8f8ac93db5ae72U, 0xbdb8c3a7be587eb4U,
  0xbe213e19be5208a6U, 0xbeea9ab2be7a63bdU, 0xbe01501bbe036952U, 0xbe5f8cbfbdea228eU,
  0xbde82d4dbe87ff94U, 0xbdc424343d81ca85U, 0xbe7fc0533de78457U, 0xbe168128bcb09c8fU,
  0xbe73f67ebe6d56f6U, 0xbe634c1dbc6c08c2U, 0xbe2ba218be03c567U, 0xbe77b459be7b637fU,
  0xbc8eb972bdd2669fU, 0xbc07a589bdcacbbeU, 0x3c91ea463dd54571U, 0xbd98e339bd84e1b6U,
  0xbe5fa01abdfabb5eU, 0xbe5fe12ebd2516dfU, 0xbc3f5126be1b83dbU, 0xbda25505be8fd98dU,
  0xbd4ab9b8be549f52U, 0xbdcc9ea1be8276b8U, 0xbde7ff313dca9477U, 0xbe1d9a943dcc2de3U,
  0xbe4e8e81be477059U, 0xbdd5a386be104ca8U, 0xbc2c5ee8be02d1eaU, 0xbe8148c8be7c8122U,
  0xbe611e64bea8e40eU, 0xbe8eb856be3db445U, 0xbe7f3f173da7e86aU, 0xbe9e5e01bdcf5d52U,
  0xbe863df2be84ce28U, 0xbeaf4485bda20319U, 0xbe544e85beab45faU, 0xbea1bd95be89ad6eU,
  0xbea252bcbe8b52d9U, 0xbe790643be951e07U, 0xbe6d17053da2cb94U, 0xbe8608123d9b0d7dU,
  0xbe844d79be5c1078U, 0xbe64cec7bddc93b1U, 0xbe4d1752be2a9685U, 0xbeb1f4dabe0b2f2fU,
  0xbe68e1dcbe57236bU, 0xbdb7489ebd264f7eU, 0xbe7517733c663442U, 0xbe204914bda6f9eeU,
  0xbe583c48be0d66a2U, 0xbe34a4bb3da20a9cU, 0xbe4b75dabe6b150aU, 0xbe17a799be120d0fU,
  0xbd1bc40fbd8a571aU, 0xbd69e860bb6d9376U, 0xbd9ae7233c79c78aU, 0xbbe6c8403d56a43aU,
  0xbdb67b95bd821b1aU, 0xba859f60bc947d7aU, 0xbb50027bbd9b0256U, 0xbdf5e4a0be2f5775U,
  0xbc2e8b7abc849342U, 0x3cd542a3baf212dfU, 0x3d236c933c92fc49U, 0x3cfff1233ca2c75eU,
  0x3c7287463c4d218eU, 0xbd24e978bdaeb20fU, 0x3cc04f513d1d5631U, 0xbdc53ff03da475b9U,
  0xbb2eda053d6a4aabU, 0x3d02fed9bbbb6032U, 0x3d4c7a8c3ce9a898U, 0x3d9ec3553dae24a9U,
  0x3da4ca763da1d961U, 0x3db95d6b3d26634aU, 0x3da840d33c82d2c7U, 0x3d16eaf63da618bbU,
  0x3db384433bfe32aeU, 0x3d3c9cb63d0a5049U, 0xbd424992bd3e7f0bU, 0xbd1733ae3e1546b3U,
  0x3e3fc8263da72d84U, 0x3bf01e2bbd9124f2U, 0xbb2c48f63ce4c13bU, 0x3c61a42b3e2701e6U,
  0x3ca926623d9706a5U, 0x3c21a327bd4260c9U, 0x3d368d863c69fc64U, 0xbd5b93eb3d92ca03U,
  0x3e4726303daa4e91U, 0x3b4d86e8be2d8689U, 0x3e2d12103e0c2685U, 0xbd1ded833e0bd056U,
  0x3dc27339bd903613U, 0x3c9efd88bda6418dU, 0xbd1e4acebdfbd5e1U, 0xbc261ff1be46b2b2U,
  0xbc308361bdcecbffU, 0xbe391604bdcea240U, 0xbcaa720abd3b9e4cU, 0xbe07a1dbbddffa73U,
  0x3bb4a1b6bd57e94fU, 0xbdd7e052be24e071U, 0xbd7f5f793d6be60eU, 0xbdf87f663d8086feU,
  0xbd45728cbd8cbfbdU, 0xbe257a2abe6d2cc6U, 0xbdc679dbbdc10d61U, 0xbdae9f00be3260e8U,
  0xbdfab0a7be05ff4fU, 0xbdd519283d398187U, 0xbe8cab3d3d849c5fU, 0xbda36959ba51b833U,
  0xbdba95fbbde1cad7U, 0xbe00ac47bd95b2afU, 0xbe3c60debdc3f683U, 0xbd8e1e34bcbbf572U,
  0x3c3691adbd47b28eU, 0xbd4a635cbdf835c4U, 0x3d8bc2e63d93b080U, 0xbc5e3a4e3dd9e74bU,
  0x3c19b50dbd8fa718U, 0xbccf5166bc757540U, 0xbd63a118bc1320deU, 0xbbc24832bd7ccfccU,
  0xbda17a91be1e1740U, 0xbe1e2f5cbe2c2712U, 0xbd84cbc7bc50ba0aU, 0xbe57cc35bd0e8fc1U,
  0xbdd8d449be089be8U, 0xbe41f06bbd8c9520U, 0xbde5b7c2be0fb56cU, 0xbe4ac32dbe1b4090U,
  0xbe2fed4abe883c17U, 0xbe7d62d5be20e9fdU, 0xbe3eb7b53d3388e0U, 0xbe7c8524bd195608U,
  0xbe51f490be6ee13bU, 0xbe90a91abd95d812U, 0xbdf6e200be327a80U, 0xbe5d2eb9be968b53U,
  0xbe40639dbe711f85U, 0xbe40e256be091c09U, 0xbe425d403dbf11e6U, 0xbe56c3c2bd3f303fU,
  0xbde95851be579c63U, 0xbe2695d3bcabb972U, 0xbe170b2dbe8cc99fU, 0xbe6c397ebe1f2e98U,
  0xbe0de7b3be3077f0U, 0xbdc73e8ebc30ac51U, 0xbe603d833c227b82U, 0xbdb916a9bca62d03U,
  0xbe07d97fbe37cf31U, 0x3cd35e443da41749U, 0xbe5495e6be5c93feU, 0xbe155d4dbe725fb7U,
  0xbc8607173bda0f3aU, 0xbdaa7ddabd09288dU, 0xbd25b0633d19bf14U, 0xbd994e963cba8827U,
  0x3c68f513bd1d5052U, 0x3c4da77f3d826f46U, 0xbd36c05bbd6484e6U, 0xbd79e2e7bc35a7b0U,
  0xbd6e766ebc04a417U, 0x3d9bb3d2bd2091beU, 0xbc968cf8bcb599a5U, 0x3c72ff363d70df1dU,
  0xbbbcf7b93cfc7d4eU, 0x3d6996c0be026ea1U, 0xbe3857103cd4d889U, 0xbd7c94003d8904e2U,
  0x3c30b441bb9b7eceU, 0xbbffdf773d6a2773U, 0xbd489444bc73e211U, 0x3dae98093d9eb204U,
  0xbc04f4eebd185b11U, 0x3df318c7bac7cd89U, 0xbcff2aa03bfe23b8U, 0x3d9a70833d458250U,
  0x3ddce17c3d3b5b6eU, 0xbc052752bc8279e0U, 0x3c8452853d6c8f43U, 0x3c59d72e3e0223e1U,
  0x3d31ff223d87af9eU, 0xbcdc6b7ebdb6414bU, 0x3d49039a3c03b34aU, 0xbd00dfce3d1f477dU,
  0x3d9a2ae23da360adU, 0x3d39bcc7bda9640cU, 0x3dc203293c0748c3U, 0xbcb8d5833d68f615U,
  0x3d9a2a563cafca5aU, 0xbd20c74bbe199646U, 0xbd2d87753dd68e44U, 0x3d1ab1903e04b5b6U,
  0x3d8ad3193b049d28U, 0xbc8b78a4bd379230U, 0xbd2dd87ebbd868b9U, 0x3d12f109bc028e66U,
  0xbd27239dbd41defaU, 0xbc87461cbda7b40cU, 0xbda882e8bd91db05U, 0xbdc69851bd3e28efU,
  0xbd88c1d0bd9cdbc5U, 0xbe2a5d81be31f23dU, 0x3d45f98e3cb46519U, 0xbe0b7c803c65db85U,
  0xbd793859bdf99370U, 0xbe10291cbddd450aU, 0xbe2131dfbd0a828fU, 0xbdec4622bdd86a99U,
  0xbddc6727be237003U, 0xbdd33e813d2688f4U, 0xbe8ecd1b3dc5a30fU, 0xbd9475383d9e4c38U,
  0xbe10401abdd29d2eU, 0xbc469eaebd9ac173U, 0xbdb68c69bde004fbU, 0xbd8bded2bda7c7ccU,
  0xbd9b8670bdbb4e19U, 0xbdacd45ebe0c06bdU, 0xbbdf06573c1c6b84U, 0xbe0e60843d51d4fbU,
  0xbd298a0dbd8eb6ebU, 0xbdba5021bd9f66c1U, 0xbe395ae7bd44f7caU, 0xbdb0aebc3ce8a89eU,
  0xbe31e7bcbdca9e38U, 0xbe32a6c8be69779cU, 0xbdd354543d92a9c0U, 0xbe3bef103b52bf28U,
  0xbe157b85be218861U, 0xbe643e08be12eac2U, 0xbe665a5cbdc7819cU, 0xbdc6e15ebd8b11ccU,
  0xbe928774be2f6f1dU, 0xbe68dd10be5439d0U, 0xbe8b02783d411a88U, 0xbe6c7f1ebd515ce5U,
  0xbe7876eebe1d9cfaU, 0xbe715631be37da36U, 0xbe806dd3be5d6f43U, 0xbe489103be075d48U,
  0xbe81935abe4ff878U, 0xbe42f738be68451dU, 0xbe6f7ffd3cf1d883U, 0xbe1adbc63d011e65U,
  0xbe0f54fdbe6819b1U, 0xbdfc26b3bd806db5U, 0xbe49861abe3eef61U, 0xbe2097a8bdc7b6e5U,
  0xbe4b87f0bdcb0585U, 0xbe0f1147be46ca1dU, 0xbe60e42f3dc47d5cU, 0xbdf8677c3d2f8ef6U,
  0xbdb5f893bdb18843U, 0x3d427a86bd92cbf4U, 0xbd35cbbbbd8af41cU, 0xbdf25678bdbeddecU,
  0xbdecd198bd36c32cU, 0xbdb53720bd5ac298U, 0xbe1a8a773d9ecd91U, 0xbdf833983c295e6bU,
  0x3d85df763c6ff336U, 0x3d8fdb193d9e6613U, 0xbd73f3583c02dffcU, 0xbd3500913d5da885U,
  0xbc0c8a14bd6af785U, 0x3d98dcd33cf276e6U, 0x3c3267bd3cce66c8U, 0x3be3b0873d95591eU,
  0x3d41b4db3a9dee19U, 0x3d9591ae3dccf007U, 0xbce5eb943d87fcd7U, 0xbd2d795b3d89d133U,
  0x3c5a7f9c3c9d466fU, 0x3c82b1143d64dbe1U, 0xbd0c483a3d9ce91aU, 0x3d226f2b3b5ca3a5U,
  0x3d0503a3bcb02110U, 0x3dd3589aba8d6c38U, 0xbdd9dc78bd8c2e56U, 0x3ccd35533b4c31e4U,
  0x3db5cbf7bd2a3690U, 0x3d92b80cbca7b737U, 0xbd8821acbd2fe074U, 0xbd64c2363d0b4128U,
  0x3e0436bc3b450793U, 0x3c966174be2d0fffU, 0xbdecc2ccbcbd0cf5U, 0x3d23e4903d92e97aU,
  0x3dfb1df23d688bb0U, 0x3de1556fbbb77f88U, 0x3db13be43d45a872U, 0x3dd1f81f3d10a3b9U,
  0x3e1e70253d93a559U, 0xbc3af3edbd185105U, 0xbbe31f373dbdbb14U, 0x3d2a21113df5d250U,
  0x3da89c643c25db9bU, 0xbd9791df3c6a97b1U, 0x3d021e343d24b073U, 0xbc98a6363d13e114U,
  0x3d4441c9bced03f4U, 0xbc908a9c3d76261bU, 0xbc70a13bbce64917U, 0x3d444cf53c92fbceU,
  0x3d521b2ebd527ff5U, 0xb9e9d5c2bd76b8c6U, 0x3d7b29f43ccb8145U, 0xbd0439e4bdb5199eU,
  0x3d766cfdbce4570dU, 0xbe4424013cb39b82U, 0x3d92e062bdb16a78U, 0xbde09ba6bb0c7739U,
  0xbd991e53bd700f06U, 0xbd93bc01bd3c56d0U, 0xbd9125ed3df1659cU, 0xbdd384c2bc939b6bU,
  0xbe10fbc2be1e6ac0U, 0xbddd2d6dbd69d3eaU, 0xbdbb043fbda620afU, 0xbd3e1a91bdcab7e1U,
  0xbd895b14be015f3eU, 0xbc137b21bb872bf2U, 0xbcd1e4363c94182dU, 0xbd97bdc3bcb7e6a1U,
  0xbdb67d60bd63388cU, 0xbe0937073e0ab3d4U, 0xbe5bf6b1bd49229aU, 0xbd22462ebd3dc937U,
  0xbde469a9be02ab6eU, 0xbd859942bde8102cU, 0xbd34fc913cdab7cdU, 0xbd229bee3b174e04U,
  0xbe1d1a3ebe20ec39U, 0xbe0a4c9b3dba86d8U, 0x3d263cd4be022713U, 0xbe0c4d2cbe1eb674U,
  0xbda3cedfbe157a31U, 0xbdab62dbbdb6db4eU, 0xbe462dee3d765714U, 0xbdac4e04bdad4c3dU,
  0xbe36d839be374334U, 0xbe890bcb3d9625e8U, 0xb79fc500be4423a7U, 0xbe486e4ebdce0263U,
  0x3d11a5efbe461df2U, 0xbd83ce9abe61ad11U, 0xbd31b1b83dcecadcU, 0xbd1b0435bcc31177U,
  0xbe06f35ebe5594a9U, 0xbe2ef33cbddccb76U, 0x3d47f74fbdd1e424U, 0xbe55300bbe682e12U,
  0xbe259d3ebe501abaU, 0xbe37999cbc849d78U, 0xbe30fd903d9351d4U, 0xbe0d170bbd21dfcbU,
  0xbe34dc89be2d7b2fU, 0xbe478da53db596d9U, 0xbdb20f32be68b31dU, 0xbe5714d7be1dea72U,
  0xbde1d0afbe09bca9U, 0xbdbb77203cb4ecfcU, 0xbe1e0a0c3cc3e589U, 0xbca3ff403cf63802U,
  0xbdf5092ebe15ff6aU, 0xbd66b8ae3bdde149U, 0xbd277c42be07a4a1U, 0xbdd8f360be01436cU,
  0x3d44ac49bd519f88U, 0x3b721f89bb076d4aU, 0x3d5f1bb73e004473U, 0xbbf0af193de2aea2U,
  0xbd705b0fbc4245fcU, 0x3d8a45eb3c8cef79U, 0xbd06a75abcebb6cfU, 0xbe2a36abbd3abdf4U,
  0xbd9d47013cf354b0U, 0xbdc7518abd2ea6e2U, 0x3ca51ae53dbcef60U, 0xbc3f24813d93eaa1U,
  0xbc3907d8bcb36105U, 0x3ca5320e3d93ea1eU, 0xbe098aac3d41409fU, 0x3d021312bd425718U,
  0x3cc80befbc9a290fU, 0x3cdb5d443bdf186cU, 0xbd99f0a23d0af9bcU, 0xbd1436903d8ad32fU,
  0x3c9791bebce49e33U, 0xbd586571bd3b9375U, 0xbdbbb7c3bc20d4acU, 0xbc7d3e7a3da9e953U,
  0x3e072b693db49aeeU, 0x3e1d2342bd1a5ee9U, 0x3da2098a3d9db7c5U, 0x3e325eb63d776bcdU,
  0x3cc5a2703cd18d93U, 0x3d7ca1bcbe0b6574U, 0xbd917fd73dd9f6b6U, 0x3d785b0b3dad4eb5U,
  0x3ccb4c833d98bcd7U, 0xbd0f83d63d2d513dU, 0x3ddecc4bbc1fb57dU, 0xbd069bddbb9888f8U,
  0x3db3be9e3d676e95U, 0xbd9f65d53dd65883U, 0xbcade24e3d419fbfU, 0xbc75b2e5bd83157eU,
  0x3d2530b6bd56e7afU, 0xbd3d26f03d66d4ecU, 0x3d7ddfa83d32b967U, 0x3d2a42e23cb2e9fdU,
  0xbcbef564bd4474f5U, 0xbd2bf2d3bcb77f6aU, 0x3ca135ba3c84a351U, 0xbca0b187bd69fba2U,
  0x3c45d73abda0f083U, 0xbd13f8c43dd69df0U, 0xbcca22933d9e0d13U, 0xbd62955d3d0ef339U,
  0xbd46d041bcd5fe69U, 0xbdd0f5143e4cfea0U, 0xbbf5fe1a3c911654U, 0xbd082d87bc295064U,
  0x3e025870bcfcb631U, 0x3e1c26733d47fa04U, 0xbc60f6793daaac0cU, 0x3d310e303cce66a5U,
  0xbcc950febdd31b73U, 0x3b9f61ce3d916378U, 0x3cd2c660bc991648U, 0x3b98c18fbd7bcab3U,
  0xbd2111a9bcb7a1f6U, 0xbd33f6ae3ddfcd75U, 0xbd8b5a4c3ce56635U, 0x3d65782bbcf89577U,
  0xbe03336bbd5d45b5U, 0xbe38a5783e079d01U, 0xbce758abbe1e6fa4U, 0xbe12cdf1be1699c9U,
  0x3de8541cbcff60b9U, 0x3dba90903dde7cc9U, 0xbd96b4553dc99cebU, 0x3d882f79bc01d743U,
  0xbd497b13bc91c76bU, 0x3ce3e0df3da956b1U, 0x3cbce9943c59694aU, 0x3d974c973d47f95cU,
  0x3e01b9b53bcadfb6U, 0x3ce96803bcead095U, 0x3d5e217e3d6b7ff4U, 0x3d732df63c9dee9fU,
  0x3bfd51843cc25ad2U, 0x3ce70c243dc45d74U, 0x3d27d861bc6a6564U, 0xbcfcb14bbc9498e2U,
  0xbd0472f7bc8650b9U, 0x3cb6c9db3d975472U, 0xbbcec7713dcfbdf8U, 0x3cfc35173d0a3373U,
  0xbda0a92ebd67a4c3U, 0x3cf616f23e263c1fU, 0x3c6d82babdf312e6U, 0xbdabde8fbe07127bU,
  0x3d42d9f5bd4444fcU, 0xbca2e30ebe0697caU, 0x3d243fbc3d3f565aU, 0xbcde5cca3da3097dU,
  0xbbf689dc3c511bd5U, 0x3b54f8cb3cc64614U, 0x3de4eace3d7f0391U, 0x3b4a87123dd26962U,
  0xbc33b2623cf72dfaU, 0x3d472ce9bda9b870U, 0x3d9a86cdbd81bd31U, 0x3d212ceb3d9aae45U,
  0x3dc6c7e4bb45ff63U, 0x3caf14e63cf251e9U, 0xbdf8bf76bcb34a9bU, 0xbd0b1af93dcdfec8U,
  0xbdf94a3fbd8e0edaU, 0xbde615b9be649a21U, 0x3bf10c6f3dbda754U, 0xbe352559bd73ae5fU,
  0xbc726f6fbd55f2f8U, 0xbc427813bae1e66dU, 0xbdf25304bd1a07b6U, 0xbc4d0d623d7262ecU,
  0xbe2f1332bddf1c62U, 0xbc9f67733bc89ed7U, 0xbe9ee4043d731acaU, 0xbd91f8f73df5e862U,
  0xbd61144dbdf65c5aU, 0xbb20245abd50c4e2U, 0xbe13a4eebdda3263U, 0xbd2e8dd13c92a459U,
  0x3dcc19c0bc0f31b4U, 0x3e00b950bbbfb7f3U, 0x3d294c553d02ddf8U, 0x3e4add3a3e2cc6afU,
  0x3d4e80103dd8a079U, 0x3e4f297bbd0c4e39U, 0x3ba1c2653e06d856U, 0x3d57e48a3daa3708U,
  0x3e0aead5bbf998d7U, 0x3dea839b3d0e61cbU, 0x3dd88baabca17573U, 0x3df85380bcfa6b96U,
  0x3dffa6903db252abU, 0x3df1e3293a7968e0U, 0x3db5254f3d52361dU, 0x3dd864f63d9246a4U,
  0x3d1ad8db3d1e9dbdU, 0x3e07f1d93d67f8e9U, 0x3db7b03ebc80c362U, 0x3d8d56eebcde9517U,
  0x3e35bc823db5d04aU, 0x3d9406ecbc34e021U, 0x3da5351f3d20ab8bU, 0x3ca353283c58a10eU,
  0x3e08fc9fbd24736eU, 0x3dfcc29a3e06d5aeU, 0x3ce602203d694de0U, 0x3e01e3afbbae5a6cU,
  0x3bb7e90dbcf8f17fU, 0x3d8bac713da6cbe8U, 0x3e17fe76bc5cac9fU, 0x3d26d636bd6f0078U,
  0x3e4391043bd19959U, 0x3e3144153cdead01U, 0x3e2868613af88d5bU, 0x3dd1e64a3e287935U,
  0x3d9b6f183d156fa4U, 0x3e166e713d7f1811U, 0x3e00f4b73dd099eaU, 0x38eab8783dca80ebU,
  0x3da7758f3d610a37U, 0x3ddaf4163e280918U, 0xbcd3aafa3d30baeeU, 0x3e1bcd363c7ae600U,
  0x3d3ce7f43d805285U, 0x3d55c8d53dfd7c8fU, 0x3cafb7493c13c0edU, 0x3d47b62abc88722dU,
  0x3dab4d073da73c79U, 0x3d10fcee3c8cec24U, 0x3e260f9d3d920b1dU, 0x3da499fe3de1d042U,
  0x3d3e3b363da4e533U, 0x3deb46c43da31d08U, 0x3deea0743d91cc4fU, 0x3bcb05763d0bc2e1U,
  0x3cdb9daabb39432aU, 0x3d23ad013bc1906eU, 0x3d7ee13a3d470044U, 0x3d00e1e63dce4b78U,
  0x3de149ba3cd6fc10U, 0x3d88ba0d3d770192U, 0xbc63fab43d94463aU, 0x3d5d7b353d9441d0U,
  0xbb8438663b096141U, 0xbc5c4d9cbd007d0dU, 0xbd0086d7bb733206U, 0xbb9dc0413d9d24b9U,
  0x3bb503683d4d6b09U, 0xbdc0634e3d244935U, 0x3cee114e3d07b2ecU, 0x3d3925c03d44d957U,
  0x3d1d01d1bcb976e6U, 0xbc454eca3d92b1b2U, 0x3d7a85933dad00d5U, 0xbb6c73babcb2cbceU,
  0x3c931b3fbbc035f3U, 0xbccc1cc13dd20a92U, 0x3c9fbe023c2ef560U, 0xbd941a4e3d98396aU,
  0xbd8704bbbdb256f6U, 0xbd90cf50bd985f8bU, 0xbd106f16bd868351U, 0xbd609da23e55ad42U,
  0xbd3297babd7208cfU, 0x3d2c2c933c968fd2U, 0xbdfe5a11bcc07d09U, 0xbcb1d81bbdabbaaaU,
  0xbe28057cbdd54da8U, 0xbe64afd0be073e3cU, 0xbcf44dfd3d69ec77U, 0xbe89d02dbe06eebeU,
  0xbdfcdd81be1f968eU, 0xbe83d2853b1bce86U, 0xbddbdcffbdc52268U, 0xbe0e48febdc12089U,
  0xbe09db1dbe646300U, 0xbe43ae5fbd9ea09dU, 0xbea358d33e06c668U, 0xbe0c425cbc1d4b6fU,
  0xbe576da9be328f73U, 0xbdf84079bd979a65U, 0xbdeb9fa5be2190c1U, 0xbe3a7326be4d7027U,
  0xbda61835bc13fa99U, 0xbd20377fbd1ebbf4U, 0xbe0062873cb38e07U, 0xbdbbe752bc71cbceU,
  0xbdb9941f3b22f09fU, 0xbcf44016be1401efU, 0xbdcc9030bba67177U, 0xbd6de9e9bdc4573eU,
  0xbdb41a18bbbe9fe1U, 0x3d1b659b3c0d7fa6U, 0xbd7f564bbc026db2U, 0x3cd8af38bd0b4276U,
  0x3d2b2a403d137410U, 0x3ddb826d3d3ffad9U, 0xbdea08633cb1a52eU, 0xbc1ef6fc3d47d975U,
  0xbd7133f03cc67006U, 0x3d2bddfa3dedcc6fU, 0xbd0a15b83d9d1ee7U, 0x3d1ad6f0bb523e45U,
  0x3c7e2ebc3c7fec9dU, 0x3da3364a3de5b587U, 0xbd76c2983d53a7f9U, 0x3ce1607bbd2d8af0U,
  0x3dad1ff43d3fc125U, 0x3e1010343e80d053U, 0x3d228d0c3d52dee7U, 0x3e0c1c16bcf6570bU,
  0x3e13c96b3dd6a407U, 0x3de61efc3e8bba20U, 0x3da32cba3de57e36U, 0x3e12c76c3cfd8de4U,
  0x3e0953bd3d4f9b9fU, 0x3e2dcdcc3d37800fU, 0x3dd199dc3cbdb552U, 0x3e5f49733c6bebf4U,
  0x3e226fe93bd36828U, 0x3da42da53e160ca3U, 0x3e244ef03d8e8944U, 0x3dd3661f3c002862U,
  0x3e3c55e73dbfc266U, 0x3e2ece363e042c19U, 0x3bd01c883cded471U, 0x3e411b1f3db01338U,
  0x3d4d860e3e033995U, 0x3e13fc103e34969aU, 0x3e8463e23dae6bdaU, 0x3d466612bc381128U,
  0x3df638e83d968d77U, 0x3dfe45f3bc4ef633U, 0x3e1adb693c059d5cU, 0x3e0e40533cf4ab1eU,
  0x3e1794fe3dcd67c9U, 0xbcbae1eb3d25ee21U, 0x3ded327a3db01629U, 0x3c3698503db707d4U,
  0x3dbc80c43d32537eU, 0x3df272053e0700fcU, 0x3c98902e3d3e98d9U, 0x3d91faca3bb235d4U,
  0x39992b2a3d3cc078U, 0x3da1d0283e018801U, 0x3e3ecf723d00df32U, 0x3c40c8a3bd851cc7U,
  0x3e249c913d2df282U, 0x3e0391723e3edbe5U, 0x3d2f94793d809d9dU, 0x3df926b53b02e17bU,
  0x3ddcbcda3d99acb3U, 0x3dc86be43e07ff8aU, 0x3e72df813dd4ef99U, 0x3dc489ed3d073f6dU,
  0x3e64703c3db24a97U, 0x3e61f5ea3e89199fU, 0x3ca48a323d89c351U, 0x3e7041913d7c206cU,
  0x3d4a0993bc5f03d3U, 0x3dc8c1b93cb82d39U, 0x3e84d8f73dbffb28U, 0x3df9c24f3d272fe6U,
  0xbd6ddb73bda4c96cU, 0xbd80069bbdb5139bU, 0xbe09019b3e1448a7U, 0xbe2652403d0a9c9cU,
  0xbe2cbd74be28c0c9U, 0xbe8c4dbfbdd8899cU, 0x3d513010bdf0792bU, 0xbdb45221bd1fc560U,
  0xbdefac20bd3e36d9U, 0xbd876ddabbd08722U, 0xbd4b4c083db96fd3U, 0xbd8109683d172622U,
  0xbd172ff9bd940666U, 0x3d7b12373c92e4b2U, 0xbcbf31b7bc6376feU, 0xbd82576f3dc3bdb0U,
  0x3c2e544f3cba16a8U, 0xbd842745bdc24ae8U, 0xbcf0a5ea3dab2799U, 0xbd0d03ee3e228b95U,
  0x3d40a5a83c3e5455U, 0xbd2db17c3d4eac14U, 0x3de19841bc757af9U, 0xbcfd5e483d93e134U,
  0xbdcbb3a5bd0ec28bU, 0xbde926b2bd0bc1a6U, 0xbcda69ed3dcbb620U, 0xbdf414343d62e7efU,
  0xbd55e056bdbd0470U, 0xbdaaa377bd188ed5U, 0x3d7c9ab1bd7e5eefU, 0xbbbdb241bd03c549U,
  0xbd511232bdd5a09dU, 0xbdc1aa8fbd9016f7U, 0xbc44ab423dd638e2U, 0xbda33b0d3c827916U,
  0xbcaddf35bdf73feaU, 0xbc544c5d3c85080eU, 0x3dbde7ffbd8e44bbU, 0x3c5c64103d14972eU,
  0xbde3a75ebd597dbcU, 0xbdbefa95be2d5d7fU, 0xbcda8b833d8e05a5U, 0xbe06f3e13de51237U,
  0xbcaad0c0bd29df5fU, 0x3d9356e8bd7ad3ecU, 0x3d7e39e4bd88e48dU, 0xbc65f7803b863eabU,
  0xbdab5d54bd601e4bU, 0xbe0cd884be3a84c7U, 0xbe1efa533db73cf8U, 0xbe5388a63d9bab1aU,
  0xbd1a0368bc3f3ad7U, 0x3b96d216bdab9563U, 0x3c16a19fbc6162c0U, 0xbd6383443d722dc7U,
  0xbe765c99be1894edU, 0xbe7a121cbe691224U, 0xbe2581803dbae974U, 0xbe9fd77c3e107853U,
  0xbc130b5cbd9ab6b9U, 0xbc4c909ebdf70da0U, 0x3b065dddbdac5daaU, 0xbcc92da73e0b8697U,
  0xbe76b4bdbe3aef3aU, 0xbe2ea7b5be164a2bU, 0xbe6c6dd73e17b5deU, 0xbe425ed93e019663U,
  0xbe074422bd9fa1c9U, 0xbd2f11a0bdae6901U, 0xbca12621bd493be9U, 0xbce847b13cb0a9f3U,
  0xbe26b081bd823a1cU, 0xbdc954f7bdd73075U, 0xbe53adc23ddde250U, 0xbe05e5803dd3612dU,
  0xbd361d5bbcf5b7d1U, 0x3da406463ab657c0U, 0xbd08e758bd6bb15eU, 0x3da379e93dbf2c76U,
  0xbe3241d5bd0d0c30U, 0xbe3b0af2bd84eaa1U, 0xbd598ebc3dfa0577U, 0xbdc634593de52cc4U,
  0x3d34059fbd3cdd87U, 0x3dd5e6d1bd225706U, 0x3cf975a33be56aa9U, 0x3dcd938b3e059fb8U,
  0xbd07ebcebd752929U, 0xbd8e4cdd3d287d89U, 0xbdbafc943da69834U, 0xbc9e39c93db2baa7U,
  0x3d6a03f53c4397fdU, 0x3de8973c3c2b9929U, 0x3dfc5016bbd501ffU, 0x3d33697f3e349a41U,
  0xbc88b8a13c9a6addU, 0xbbac82eb3d689e4eU, 0x3c9919673daf6398U, 0xbb62f85b3dba1c69U,
  0x3dd14a7d3d9ea865U, 0x3df094023da33413U, 0x3e004fba3d26565eU, 0x3dd0fc7b3dc1e39aU,
  0x3c936cafbdff8147U, 0x3d8b0b4dbc9679f4U, 0xbdb0651e3e67d0e8U, 0x3d8f50843dee32f9U,
  0xbd5facdbbdd687b7U, 0xbd9354f3bda3e75cU, 0xbd4bb75ebd465228U, 0xbdadde113d30f5ddU,
  0xbdca0714bdd4e2a9U, 0xbd32556fbcdb3c3fU, 0xbd7f62123dc6f412U, 0xbd9a71693c5f9db4U,
  0xbd4187c9bd78b582U, 0xbe1ea3c93cb92072U, 0xbd82a190be06773aU, 0xbcba1bbdbd879d50U,
  0x3b03435ebd2b0a4aU, 0x3d99ace53d816d4fU, 0xbcef99b73da71f81U, 0x3d6e90d73cdad111U,
  0xbd8648a4bdca7299U, 0xbcb540163e03314cU, 0xbd418c34bd534de0U, 0xbdb60a0fbd902e16U,
  0xbd33c976bd4d0fadU, 0xbdd4a831bd566098U, 0xbd0e52613d811036U, 0xbdf782083dce100cU,
  0xbddeaa2dbda5a360U, 0xbe059b6d3c40b657U, 0x3d065cdebd716d23U, 0xbda37a64bbec607fU,
  0xbd274ecfbd42b057U, 0xbd6efbeebd56bb97U, 0xbd4900143dc8155eU, 0xbdc955f43dfdd86fU,
  0xbbb1cfdabda3b0e9U, 0xbe23f3663d7d39b9U, 0x3ca3d364bd2a9762U, 0xbe03c462bd5e9246U,
  0xbdff8b5dbde7d634U, 0xbe24de87bddc1705U, 0xbdc4a3f33dd71d37U, 0xbe22ceabb923c49cU,
  0xbe2868c5be2e5131U, 0xbe0f9fb5bd939da9U, 0xbd406147bd9717efU, 0xbe1afe97bdc393faU,
  0xbe42b345be64f171U, 0xbe7a5f6ebe62bab5U, 0xbdcf747f3d8d8933U, 0xbe5d205b3caeab3fU,
  0xbdbdc99ebe5fd0d1U, 0xbe81d04fbd4836daU, 0xbe2be21cbe3d0da5U, 0xbe35ed3ebdf3c956U,
  0xbe98fcd0be625547U, 0xbed84a25be9d065bU, 0xbe8e2df93df62e1bU, 0xbee52ebb3d3a1b86U,
  0xbe52059bbe95e60bU, 0xbeb35e4bbd8e8d20U, 0xbe2e0637be8b917fU, 0xbe4d42dfbe0d9e2dU,
  0xbea2ca63be787d78U, 0xbeb18848be89365bU, 0xbea6da853e126f44U, 0xbe9ecb5a3dab6ae5U,
  0xbe824247be8c0d13U, 0xbe943226bdc24ed9U, 0xbe55235ebe6daf28U, 0xbe1938d9be73cf14U,
  0xbe62f93abe5f2bb1U, 0xbe9d5a8bbe678450U, 0xbe666ef13e14785fU, 0xbe6d1b883d7fffc7U,
  0xbe6f454fbe64f2fbU, 0xbe2ad041be01a791U, 0xbdd135d4be53af56U, 0xbe05c643be32cff9U,
  0xbe8a61afbe514196U, 0xbe98fd99be8d1459U, 0xbe9aceaa3d5c3fcfU, 0xbeb3af2a3cdd8dabU,
  0xbe26d2f3be492489U, 0xbe5c8dddbd068530U, 0xbe4b67aabe6888c0U, 0xbe5f77babe06fa1aU,
  0xbe8b1ec4be3b1c7cU, 0xbe743c5ebe3c0cbdU, 0xbe8570443d8d1c16U, 0xbe6601d13d9f9464U,
  0xbe19c9b9be0fba00U, 0xbd839a5abd92223cU, 0xbe3da1a3be0cb296U, 0xbdbe81abbdd24913U,
  0xbe19668ebdb7629dU, 0xbe25260dbd4f51acU, 0xbdbed7433e0b38dcU, 0xbe54cde33df683b3U,
  0xbcb37a9ebdcad14cU, 0x3c5e7f5e3d5b6907U, 0x3bc80c8abd1d1cfeU, 0x3d8d85753c0accbfU,
  0x3cceccefbcd6bb5fU, 0x3d1bdf0abd9064c2U, 0xbbce90f43dced854U, 0x3c86f0453d26aedaU,
  0xbcdcd77c3cc0e2a7U, 0x3d201e48bcacea40U, 0xbd7f6e5bbd2e33f9U, 0xbdca4c463cfd3744U,
  0xbd4658a4bdd504eaU, 0x3c35ff7a3c826789U, 0xbcc5325e3d19acb0U, 0xbc5563b43b505e9fU,
  0xbd89b015bd7cd992U, 0xbda7c4753ca5d394U, 0xbe2efbc5bd9e4cd5U, 0xbd9bc1e63c4d631eU,
  0xbd46e2d4bd72538bU, 0xba86d26fbd40f709U, 0x3bca388e3d9cddc0U, 0xbd11d8a33e290729U,
  0xbd662d7cbd791767U, 0x3dc95d2abdd865c9U, 0xbda9ff62bccd47e3U, 0xbd0786a2bcbb5dd6U,
  0xbd602f7abd26681bU, 0xbda9ea25bd2bf779U, 0xbdc288bd3d0d1241U, 0x3ba59a3b3ca72827U,
  0xbd654b92bc9ced44U, 0xbe106a433c20dd89U, 0xbdd4638dbe03a3c4U, 0xbdfaa9af3c38ee66U,
  0xbc21e3e0bcd25288U, 0xbd658ce7bd886e7aU, 0x3c94e55f3d9b1960U, 0xbcc60ebe3c8e047fU,
  0xbd487290bcaf0071U, 0xbd0a1972bdaad42dU, 0xbd840665bd53d385U, 0xbcc570f1bd071151U,
  0xbdee3b4fbd6cc37dU, 0xbddb05d5bd878242U, 0xbd32dd8b3cc46d73U, 0xbe057388bbc21ab4U,
  0xbcaf99d4bdd8a2efU, 0xbdce6b32bd16db64U, 0xbd1df064bd9b2b65U, 0xbd9be78ebd85e5fbU,
  0xbdea87ffbe176435U, 0xbe0c3d70be171db5U, 0xbc82ffc03dd89570U, 0xbe0646cb3d6ff944U,
  0xbd71190ebdcc792cU, 0xbdcd1369bd1ad654U, 0xbcecbec1be0e8c97U, 0xbdf88998bde85198U,
  0xbd8bb56ebe51d595U, 0xbdf22963be249e44U, 0xbe40083c3ddfc743U, 0xbe5d72593cb8691aU,
  0xbe0ec73fbe4235b4U, 0xbee47023bcce5c89U, 0xbe170f1fbe10efb4U, 0xbe8f9d66be68048fU,
  0xbe31835abe185d77U, 0xbe60965fbe8140a9U, 0xbdf0fd4c3e05c303U, 0xbe90c66a3dbb709bU,
  0xbe895ff7be59f0ecU, 0xbeb2f45fbdf4aeebU, 0xbe0c3d64be66cec1U, 0xbe6c5736be816576U,
  0xbe29cf6ebe8705bcU, 0xbe8cdc8ebe2ac934U, 0xbe9a19d83d8d9b07U, 0xbe873b573d07a39aU,
  0xbe5a0368be6967e6U, 0xbe8ed3a9bdd9bbdbU, 0xbe62f6f0be5cf33bU, 0xbe1003e3be5def68U,
  0xbe556d09be837861U, 0xbe64d825be99a887U, 0xbe563eb93e1081c5U, 0xbeaa37593cc9602bU,
  0xbe9b867dbe8a532aU, 0xbeb0a965be00dcc4U, 0xbe2ed6e0be82478fU, 0xbe5abb9ebe8e106eU,
  0xbe9a17fdbe7c0eaaU, 0xbea43637be79a4d3U, 0xbe7e36f23e100740U, 0xbe9a08933c902c3bU,
  0xbe8a6ffcbe8811caU, 0xbe38af86bc30fc48U, 0xbe52c766be7c407aU, 0xbe6a56a5be8b496bU,
  0xbe8f4c17be7bab0eU, 0xbe5e5d85bda0243eU, 0xbe667a633e0947a5U, 0xbe8089d03c444d51U,
  0xbe34a5acbe66a81dU, 0xbe3d0ab63d59c319U, 0xbe030ccbbe464e5bU, 0xbe2398c1be36b493U,
  0x3d2cc9c5bc2ea010U, 0x3cf547a83d2c47dcU, 0x3d3206cb3e1e2f58U, 0x3d50b3e7bd7a3c24U,
  0x3d567719bd2505c9U, 0xbb3d901c3cfde1b3U, 0xbd8039a0bd3d5a07U, 0xbd382aa43d479aa5U,
  0x3b952e59bd3d10daU, 0xbd1208433d0cc9cfU, 0xbca6a5873d928d34U, 0xbd39247f3bdadc48U,
  0xbda4c772bda6ccb2U, 0x3d9c72af3d9b7fdeU, 0x3cea3af9bdc3de33U, 0xbd45a681bdce4e07U,
  0x3bf46050bc8f6be3U, 0xbb9e48a43c7c2dc0U, 0x3d6aab073e03ade9U, 0xbb1168143df76092U,
  0x3d31d189bcdd3f4fU, 0xbd4443f53cb4cd36U, 0x3d5ee305bd1f0a26U, 0xba84c0f43b5651e5U,
  0xbd3b62ccbd90ae8dU, 0x3d0489d53dd0d2c9U, 0xbd0442e33dd88ec2U, 0x3d975c54bc790295U,
  0xbdb9d153bd3b5ae6U, 0x3c92b18a3d8a44c6U, 0xbd8e47f7bd611954U, 0xbd26664dbdac603bU,
  0x3da654043cd97668U, 0xbd2097b2bd233de3U, 0x3dd1eb403d6da588U, 0xbc87ba18bd962a7bU,
  0x3c7d32b73b93e5bbU, 0xbd6f97193c013d4dU, 0x3cfd3f73bd822309U, 0xbd18a00dbd8bbaf9U,
  0xbdaf5b0dbd76f0e5U, 0xbdb15fd6bd63d728U, 0xbda87dc03d1a839eU, 0xbdf5de25bd1a443cU,
  0xbe2647fdbdf14113U, 0xbe16002e3c988811U, 0xbdb7cbffbe1d1951U, 0xbdd85dd1be1ad3e1U,
  0xbd517c4bbd99c485U, 0xbde839d0be38e0b4U, 0xbd21112c3de6b3feU, 0xbd1f42413dbbd31fU,
  0xbd00d648bce80504U, 0xbde91df8bda78f32U, 0xbd8de098bd0937feU, 0xbdca8ba6bdb86a73U,
  0xbdef2b56bd8ade3eU, 0xbe2af275bdc7558dU, 0xbdd4cdab3dfca7b1U, 0xbe0fa1a5bc15c277U,
  0xbddf3158be127654U, 0xbe040df8bd35fe5aU, 0xbdad8812bd8b56e4U, 0xbe122c97bdef1948U,
  0xbe2f1c95bdf70ef4U, 0xbe745d0ebe5cbd4fU, 0xbdec85433df8d188U, 0xbe4cf851bd0d6612U,
  0xbde65439be3dd50dU, 0xbe5f7a15bdbe396cU, 0xbe104d5fbe048461U, 0xbe2ef879be24fa1cU,
  0xbe1fbe7abe1dd39cU, 0xbe38c2b8be052b75U, 0xbe8f47403e061324U, 0xbe658f063d2b0286U,
  0xbe1773e6be288817U, 0xbe0b4e8bbd92b166U, 0xbdb20695be1f6d37U, 0xbe5a6440be2c7e99U,
  0xbe387832be57c3ffU, 0xbe2c4585be5870b4U, 0xbdeb6d993de056bfU, 0xbe7174463cb5451bU,
  0xbddfdc5dbe4cbb0cU, 0xbe384fb7bdb3a639U, 0xbdb6450bbe165285U, 0xbde86ba8bdd8b0d3U,
  0xbe551d11be4cc92cU, 0xbe962094be09c911U, 0xbe8e46e23e039fafU, 0xbead7fb9bb133d65U,
  0xbe6f3e70be6b5b92U, 0xbeb7f589bd9814b4U, 0xbe0bb9c5be87b8bdU, 0xbe06568cbe56dfbdU,
  0xbe924c15be150294U, 0xbe97bcffbde23ed5U, 0xbe8dd3a83d752f3eU, 0xbea34a7f3d59a559U,
  0xbe39914dbe1f8c57U, 0xbdcbc4db3d4459a3U, 0xbcc781c8bdda8b67U, 0xbe29a249bdfc699eU,
  0x3d1b68acbc1c65e7U, 0x3dba3c4cbd625694U, 0xbd67aa1d3e092a46U, 0x3d80e8913d6cb9dfU,
  0x3ba1c15cbc330154U, 0x3d4a3123bd391349U, 0xbe496ca43c0bf2dfU, 0x3a9db2013de7cb3eU,
  0x3d0d391e3cc49e58U, 0x3cce352b3d089c78U, 0x3d4031983d61c896U, 0x3d0865983d6f44eaU,
  0x3db9e7d93c5de7f3U, 0x3d253f363d96eed6U, 0xbdf6a15fbc556ddaU, 0xbc17676ebd51d035U,
  0x3c87f0ae3c8bb8ceU, 0xbbba5bd63d5ce8a9U, 0xbd8f56973b3d0b3fU, 0x3d2b10113d58a2acU,
  0x3acad05cbd57d5a6U, 0x3ccb182c3e2665daU, 0xbdbbe1923d0df345U, 0x3cc66246bd0378a5U,
  0x3ccea6c1bc914da3U, 0xbb822a423d39dba7U, 0x3cb3d23a3d99f22eU, 0x3d0d7e303e30b8d6U,
  0x3d2c0d92bcb4865fU, 0x3da02efc3a405aecU, 0x3d530cc83cee4d9eU, 0x3d44d48638a65ef0U,
  0xbc7894c03d123cbbU, 0x3ca4f5eebcc12c9dU, 0x3d2cf236bcd6b4e6U, 0x3d4aaf2fbd24821aU,
  0x3b8100583d13ed29U, 0xbd97e133bc22a182U, 0xbdde04f23cc6d263U, 0xbd8d85e93d523736U,
  0xbd273007bd1f9ea2U, 0xbd7c370f3bd42e08U, 0xbbec0a263db4643bU, 0xbe1e4122bd98089bU,
  0xbdcb5c25bd1d4de5U, 0xbe280996bd2fe4feU, 0xbd54af89bd59aae0U, 0x3c73f478be5a3ba5U,
  0xbb4368c9bc6864e9U, 0xbbdfdb45bc247211U, 0x3c9547683dbe479bU, 0x3c749704bdadba48U,
  0xbcb481ffbd167903U, 0xbd24759f3da453d2U, 0x3cbfa75abd991d76U, 0xbdfd2871bda2bd13U,
  0xbc812c92bcc89478U, 0xbd07692dbe2fef89U, 0x3deb555c3e00ceb8U, 0xbded656abd055004U,
  0xbdef22dfbe15fed4U, 0xbd9075bfbd42cfc3U, 0x3c4392fdbe123881U, 0xbe2dc43ebe2be799U,
  0xbdf62525be1f23a0U, 0xbe7c2bd2be69d134U, 0xbe0212783dc32141U, 0xbe3fb1a4bd1a2dadU,
  0xbe5b2201be350740U, 0xbe85067ebd840d2dU, 0xbe0ceb6ebe3840a1U, 0xbe508a7ebe2e5ac8U,
  0xbe3f0118be01def0U, 0xbe835aa0be665170U, 0xbe52c3c03dd7de30U, 0xbe86dd4abcc50a9fU,
  0xbe964f74be0dbc31U, 0xbe729856be26400aU, 0xbe207469be298ee4U, 0xbe7b0b40be753ab6U,
  0xbe2b59c4be26979aU, 0xbe515c47be560505U, 0xbe572ff23dcc2deaU, 0xbe5bab77bd107300U,
  0xbdf1c53ebe7a5dfdU, 0xbe689bfcbe0f6598U, 0xbdfabeb4be42737cU, 0xbe83515ebe1ecae8U,
  0xbe62405dbe793b72U, 0xbe79b898be88682aU, 0xbe83c69e3e0e6ddeU, 0xbe58886b3c8e0618U,
  0xbe84d667be67f9c2U, 0xbe88c74bbdb8025eU, 0xbdae0289be94d694U, 0xbe9cacb1be70dbceU,
  0xbe7fe2ebbe6e158bU, 0xbe8633a1be4a9673U, 0xbe94dab93dfb4043U, 0xbeafd7943ddd75a5U,
  0xbe7aefc3be284111U, 0xbe63320abdb6830eU, 0xbdda7df9be8e0858U, 0xbe22ad53be3bb6d1U,
  0x3d051f9d3c9a632dU, 0x3d5cb9223d9e8b8bU, 0xbd5e34bb3cf2f76fU, 0x3c4ce9003bd1be0bU,
  0x3d01c1493c4f0df5U, 0xbabd079dbd2ec12fU, 0xbdf5ad0bbc45d96aU, 0x3c6255253d0d49e2U,
  0x3db95f983d12fa81U, 0xbb48851cbc87d0faU, 0x3db8a1173dc2f47fU, 0xbc55d24b3d5aaa26U,
  0xbd5b46403b8c15ebU, 0x3d2efade3da66f25U, 0x3ce381183d6c5747U, 0xbc68e3febd89aefeU,
  0x3cc8ea83bcca2c67U, 0x3deb711f3da26118U, 0xbd7d51173bf7bc93U, 0x3d9f02593dde00feU,
  0xbc34e7e0bae223f9U, 0x3dbdce093d610337U, 0x3d260d683c540964U, 0xbd2da0f7bd77a540U,
  0xbd5014b13d8e0869U, 0xbd9c41d03c596edaU, 0x3d2f12113bc91999U, 0xbb5b390a3da96a3aU,
  0xbbb381bf3da84ff1U, 0x3ba561683ba4f924U, 0xbad930ad3d39f087U, 0xbb338b963a20a133U,
  0xbd1224ccba2c543eU, 0xbd65b44fbd0e98f8U, 0xbdc419643da7c27fU, 0xbd6780dd3d88165fU,
  0xbd9e5e0e3d18c933U, 0xbbdf1903bc99a0cfU, 0xbdac8ccfbbab2bd5U, 0x3d5626023c286adfU,
  0xbd6b9febbc60957bU, 0xbda2cf8fbd96a149U, 0x3cf0ff083c1373f8U, 0xbdf2b765be25c9ebU,
  0xbcc041dfbc0ab403U, 0xbde15538be1e8a90U, 0xbdf862d6bd8355a3U, 0xbdacd3b23b6b4ae1U,
  0xbddcf291bc488a0bU, 0xbd6fcc4dbde03e8cU, 0xbda15d2d3d3f3aaaU, 0xbd2d66993d9390d1U,
  0xbda79936bd3597b0U, 0xbd8aae65be26f0c2U, 0xbdb31284bc818033U, 0xbd2ddb83bcc2e7c4U,
  0xbd3ab378bd9afbc8U, 0xbde98428be1c3f21U, 0x3c1c43363d85f6bbU, 0xbe12e4ff3d9fb506U,
  0x3c557759bc50c42aU, 0xbd91c1d2bc30216fU, 0xbd8d3db6bcc976caU, 0xbc60cf0f39194a8eU,
  0xbde09e73bdf34c86U, 0xbe217d00be181fc3U, 0xbe16afd53d9afe37U, 0xbe23559e3d73d9a2U,
  0xbe3fd3fbbe2ce3fdU, 0xbe3e9ba3bd644081U, 0xbdde1458be0065fbU, 0xbe21e416be07b82aU,
  0xbe200a51be623b62U, 0xbe2df989be8b9e64U, 0xbe0b90493d6975caU, 0xbe79193d3d0c168eU,
  0xbe5033dfbe268128U, 0xbe71936dbe148ae7U, 0xbdede15cbe59e18fU, 0xbe66169fbe440a19U,
  0xbe4b7c7fbe4f4f91U, 0xbe5ed7a2be6a762fU, 0xbe61e68c3e0f9006U, 0xbe854f333c66f6acU,
  0xbe7ef777be49af47U, 0xbe9b8144bdbb3bcaU, 0xbe0c0aa8be3c0a49U, 0xbe511738be4c488eU,
  0xbe4cbe97be2fdf4dU, 0xbe5cf819be1d069fU, 0xbe4db8a63dcbf1bdU, 0xbe9f910bbd48e950U,
  0xbe782804be78e298U, 0xbe87bb59bd27ee48U, 0xbdc79f44be789d46U, 0xbe850137be8c0dc3U,
  0xbe216c65be5f6984U, 0xbe4cd9533c167df3U, 0xbe5f50d23e0eac5cU, 0xbe6192623cc12285U,
  0xbe7bf878be79d2d5U, 0xbe8919003c5f6cd2U, 0xbdb8bafebe456255U, 0xbe611923be3e1eb3U,
  0x3daf3acf3cf706a1U, 0x3cbc35ee3d73f563U, 0xbcef8c243da7fcf5U, 0x3cb9b68f3c1412afU,
  0xbd908c4b3c6ad960U, 0xbd13e864bd48319eU, 0xbe0ca45dbd8a8117U, 0xbd9573f7bd9cdea5U,
  0x3c6c9f143d8ac66fU, 0xbcd370eb3c653129U, 0x3d52db6e3d1506eaU, 0x3c908bf6bd86c77cU,
  0x3cf874273cc21b4aU, 0xbd7cc39b3d940949U, 0xbdbb1f163c37e85dU, 0x3c5344d1bb84ea16U,
  0xbcb36a4e3c174d08U, 0x3d26dbe13ca2b0f2U, 0xbd380ee23bb40793U, 0xbc5ee7063e30e4c9U,
  0x3d6a240239af5492U, 0x3de3ae843c96635dU, 0xbcd63c503c9c0399U, 0xbd4c45cd3d2d7eccU,
  0xbd5aba4cbbba38aeU, 0xbdffc464bcdd70a8U, 0x3d8fe56a3e105e80U, 0xbdc0b81f3c3e716cU,
  0xbd058c31bd3452d8U, 0xbe01efbf3d85ffe6U, 0xbe1ff96e3d268cd9U, 0x3d6c1a27bbf5b026U,
  0xbcf216a9bd3e0085U, 0xbc76631c3cad1081U, 0xbd958b843cb522b2U, 0x3d442dc23cf9837fU,
  0xbda00dc3bd305272U, 0xbd9c707b3d77e6d1U, 0xbcfdbdb6bdbfa2f9U, 0xbda2556abce1c4ebU,
  0xbd1ba6f6bd9efee1U, 0xbc8db407bdd7609aU, 0xbd08ca9c3b186a88U, 0x3c40c651bc1fb4c5U,
  0xbd8ecca6bd0ec51eU, 0xbe20ac68bdf06203U, 0xbe38c77abd18eeb9U, 0xbd425557bdd97e16U,
  0xbd7dd420be0942deU, 0xbd890b73bda6bc09U, 0xbc18aced3da36471U, 0xbd9a898cbac8814aU,
  0xbe04c874bdb6b787U, 0xbe37b80c3c9b55edU, 0xbe31adbdbdde2cf9U, 0xbe3fd106be0eff7bU,
  0xbdbc03a6bdc04bfcU, 0xbe2895f4be102789U, 0xbd1ab7f73daa9f2dU, 0xbe0696a4bcb48ef5U,
  0xbe2e13a2be0c55b5U, 0xbe107826bd641bd6U, 0xbe3a73c4bdcd441dU, 0xbda23089be218e6fU,
  0xbe16cb58bdfbb921U, 0xbe825005be36f057U, 0xbdb0f6103e0d02f0U, 0xbe8de9a8bd0d68feU,
  0xbe3b3d6cbe32621eU, 0xbe6c96b7bdebaa18U, 0xbe20c899be3c127fU, 0xbe4e333abe56faaeU,
  0xbe2153bbbe7e69d1U, 0xbe3fd45fbe000b33U, 0xbe7316fd3d8baa43U, 0xbe58efa2bd363db8U,
  0xbe3d316bbe319625U, 0xbe89e54cb93d1626U, 0xbe5b8c0ebe6d3981U, 0xbe507c55be117ee0U,
  0xbddf2113be4dd1aaU, 0xbe44098ebd592ed3U, 0xbe805d353da4ced6U, 0xbe39b654bc9b7e26U,
  0xbe5e3ccbbe749cfeU, 0xbe5a56163d6a598cU, 0xbe473492be6268cfU, 0xbe20eec1be831d8dU,
  0xbdfa160dbe3e9f51U, 0xbe0f4d75bdb89216U, 0xbe0802dd3e08841bU, 0xbddef55b3d9413e1U,
  0xbe43a9f2be3be200U, 0xbe1851663d51e7f9U, 0xbdc0d1b0bdf1f31dU, 0xbe20dd57be5911feU,
  0xbda4490dbdca92c7U, 0xbe165b94bd55b3f1U, 0xbe0045903dcc3189U, 0xbe2e4b933d570131U,
  0xbd944150be1c21d4U, 0xbd89a3cd3d450d96U, 0x3d867008be29657bU, 0xbd94e756bde2ae8aU,
  0x3daa05553c801dcbU, 0x3dae68e33c3eae35U, 0xbbc6564f3d53a624U, 0xbc5a1601bd25413aU,
  0xbd88b24a3d07206aU, 0xbd10aacbbd88e625U, 0xbda9f6f83ba3e776U, 0xbd4949aabcda19eaU,
  0xbd1165fcbc649e9cU, 0xbcabb6acbcce5a0cU, 0x3d7f5143bdaee2a9U, 0x3cf00bff3d42edcdU,
  0x3da320773cf3d6a0U, 0xbd3c87bc3ce6b92cU, 0xbd37b77a3ce7df5aU, 0x3bf774fc3dbb427bU,
  0x3ccc4017bc1579e4U, 0x3cd315283dbf8eb9U, 0x3c35cd693d8a4828U, 0xbc11e3333e3c047aU,
  0xbbfc9b663ca48e69U, 0xbd75842b3cc44037U, 0x3d649e4e3cfea759U, 0x3ce141253d7caebeU,
  0xbdb281f7bd0063bfU, 0xbda7747f3c9041b4U, 0x3d8accc73ca2ec2bU, 0xbc461600bc195e3aU,
  0xbda85663bd6c584cU, 0xbcd567403dcb31c7U, 0x3b0e8968bdab27e8U, 0x3c4faf8cbc816804U,
  0x3c356f6abb5c4271U, 0x3d4647873db068e9U, 0x3d8f934a3da29dedU, 0x3d278b9b3dcf303eU,
  0x3cc92065bc71931cU, 0x3cbeaee93cad7cafU, 0xbdd335dabd84f507U, 0xbcf921143be8cce9U,
  0xbd1130323b163ca4U, 0x3d15831abc2549f2U, 0x3cdea2473d409770U, 0xbd18308abbc09fb4U,
  0xbd096e16bb89dfa7U, 0xbd12046f3d66ab6cU, 0xbd772058bd8ff074U, 0xbdba785bbdb8fdcfU,
  0xbc90dc38bd0124e6U, 0xbcef86893c59ba4cU, 0xbd41da7b3caf5277U, 0x3d0729f73ac831aaU,
  0xbd737670bc0c892aU, 0xbd7950783d96e8ffU, 0xbd697a3bbd8fced6U, 0xbdf69a79bd180098U,
  0x3ce6682abdb2bafbU, 0xbda3eed5bddda5ccU, 0x3d6b21db3dc6875cU, 0xbda7abfcbd628f75U,
  0xbdde6a25bcf19a81U, 0xbdfe2b303d64911bU, 0xbd6239f9bd9b5336U, 0xbe0cff8cbd4b6743U,
  0xbd4a50f5bdc60757U, 0xbdf3007abd97d5c0U, 0xbd7f50a33e06f173U, 0xbdee6039bd078ffcU,
  0xbdde97b3be0eeff9U, 0xbe6139c53d27e354U, 0xbc7b6e55be01ab50U, 0xbe22fcffbd96e451U,
  0xbd837a32be26256bU, 0xbe1eb73fbe01144dU, 0xbde503ec3da99debU, 0xbe0dcb58bd360c91U,
  0xbe26402ebe05012fU, 0xbe3ccc6ebdef2131U, 0xbe0566b0be0d4b73U, 0xbe1f64b6be53ced9U,
  0xbdcb9f48bda23efeU, 0xbe46656dbd5302bfU, 0xbe10fc813db231b2U, 0xbe4a85653d23ad11U,
  0xbe258cbbbe25b94fU, 0xbe4cd1ec3c643fb6U, 0xbe0de388bdfce55cU, 0xbdc909aabe14663fU,
  0xbdfc2f48be0ba5deU, 0xbe105328bdd4679bU, 0xbdc61c463db688ddU, 0xbe065a8d3d1a07d2U,
  0xbd8efbdbbe043fa7U, 0xbdc265443d1de2acU, 0xbda97918be01d6edU, 0xbdec5042bcd843caU,
  0xbdf100afbe22300aU, 0xbe3889adbda7e0f4U, 0xbde3ad4d3e021e43U, 0xbdd181953cb09068U,
  0xbe1b6943be2800a2U, 0xbddbacb03c98afd2U, 0xbd985240bdd11e3eU, 0xbd61579bbdbaffb3U,
  0x3e18b2eebd4bb6ecU, 0x3d8556af3d22cd01U, 0x3e1706133ddc54f2U, 0x3d472e453cc9a30fU,
  0x3da1d5c43d22b86bU, 0x3c74f9aebcfd0e74U, 0xbd911dce3cc8b96cU, 0x3a8c34b03da636ccU,
  0x3be225d13bf31250U, 0xbc722d39bcc7327cU, 0x3dd9a312bd69025cU, 0xbd165ef9bc8bbd05U,
  0x3c402b423c8cc48cU, 0x3cd1100e3c3ce2b6U, 0xbdc45c7bba942e82U, 0xba81dca4bdb00468U,
  0xbd0ed9abbbf42ecdU, 0x3d3462723dc44d10U, 0xbd1e993f3df78017U, 0xbb3234253e0a62cbU,
  0x3c7bfb51bc069294U, 0xbba954263d7afcfdU, 0x3d317eb93c8f8c94U, 0xbc9d444e3dddf11fU,
  0xbd29cbafbd3a3243U, 0xbcf0debd3b429e9cU, 0xbd0e041dbd8af1eaU, 0xbc4b0792bd7e41aeU,
  0x3c78f3f93bf09945U, 0xbd3a22b83cd37cccU, 0xbd18bf3fbc934ccaU, 0x3d8523ddbd206a48U,
  0xbd44cbde3b423b2cU, 0x3cc43030bc72a3c0U, 0x3c95a8bcbcb72882U, 0xbc23e1663e21c5c6U,
  0x3cf416753d19d81fU, 0x3da17a793db65d6bU, 0xbde7d7653cc8a57fU, 0x3b2c4c183b294028U,
  0x3d0310e13b9a1c3dU, 0xbba4b3a0bd0ee780U, 0xbcea90173daaf96eU, 0x3c120b93bd181b96U,
  0x3d4297c53b0e0ac7U, 0x3a908c50bcd1939bU, 0x3d123c4cbc929000U, 0x3c9dbeec3ba09070U,
  0x3d60f8503c9f0315U, 0xbcf08107bc535e93U, 0xbd29bea73bc92812U, 0x3d45a72dbbc8566cU,
  0xbdb07f373be99261U, 0xbde2a3e7bdd5f173U, 0xbd9f0169bcf70bc5U, 0xbccac45dbdfcad55U,
  0xbc3fb73ebd1bc95bU, 0xbd938b42bd0a4f85U, 0x3dc9ca8e3da6c8b3U, 0xbdda4b57bc26e15fU,
  0xbc6e5700bcdaec5fU, 0xbdac7beabb215fe6U, 0xbde8ff8ebd4ba966U, 0x3d757be73ca24f36U,
  0x3c5eec9abc2020bbU, 0x3c4ec9bbbbe16cf1U, 0xbdd60f9e3cf814a3U, 0x3991f6dc3dcf44ffU,
  0xbdacf825bd84293eU, 0xbc95353fbc8286c6U, 0xbc9197cabc3330a3U, 0xbdacbde3bd4b178aU,
  0xbc5cd9c9bd12b007U, 0xbde8c410be1830e9U, 0xbd37ba593e09d281U, 0xbe21b36a3dcfd0afU,
  0xbcafe75bbd873fa5U, 0xbe160667bdfcc03bU, 0xbd3f2f28bd459f94U, 0xbdeef947bd282ca9U,
  0xbe29b9b7be03e478U, 0xbe42cc11be1a6de6U, 0xbde9bb283dd7fc48U, 0xbe1dad4fbd59e358U,
  0xbdca7e7abe215329U, 0xbe074a8ebc829756U, 0xbd8abc19be1e9fe8U, 0xbe0b2b8cbd388df6U,
  0xbdbba49cbe209bd0U, 0xbe043703be44bb9eU, 0xbdd78b823dab210fU, 0xbe01f27bbc6bdfabU,
  0xbdd7a0d6be01819fU, 0xbe187e99bdd886c5U, 0xbe04956dbdd33440U, 0xbe021fe2be053f6bU,
  0xbe6da74bbe0a4aedU, 0xbe5534d0bdb6d185U, 0xbe4af3893dac0f9bU, 0xbe6aeb993d80a3f1U,
  0xbd509937be22916eU, 0xbe4108de3d2604c1U, 0xbd9d98cebd95baa8U, 0xbdf0bf3cbc080e9cU,
  0x3d10e45b3d1c502cU, 0x3d6f90843c957aaeU, 0x3e2800013c9b8c48U, 0x3d828efa3c67a244U,
  0x3d85fed33dbaba09U, 0x3d542617bd69fe88U, 0xbd32ce3b3d5626f8U, 0xbd65b80b3d1d3183U,
  0x3b861157bd0bd658U, 0xbd36c0013d4b61b0U, 0x3d9c8f3e3df4c754U, 0x3a8c93513dd24d71U,
  0xbd1e063dbc914bebU, 0x3d34c5eb3e54170dU, 0x3cb48dbfbb6917e7U, 0x3cdca018bd3dc172U,
  0x3d99a4d8bd160799U, 0x3d8918a23dbe727bU, 0xbc3c4b5f3cc07118U, 0x3c8ef4503e01b332U,
  0xbca48491bd416ce1U, 0x3dd92e423d58edbaU, 0xbda1d4abbd181727U, 0xbdb3596abca05758U,
  0xbd9c20373b3d06aeU, 0xbd8ae6d73c5a691bU, 0x3db6273d3e0ab31cU, 0xbd16963f3d08fa59U,
  0x3c9ddca83c877f99U, 0xbc7c67a73a943070U, 0xbe0f9ee9bb2c9404U, 0xbca7bb9bbd97fd5bU,
  0x3b794490bd648a67U, 0x3da378663dd64893U, 0xbbcd414a3de8e6c3U, 0xbb2b76123c10c2a9U,
  0x3d1be9c6bc0d4525U, 0x3d1c37c03e3fc86aU, 0xbce464353ce75860U, 0x3d796bca3c32b034U,
  0xbca073e23d23d99cU, 0x3ac62a963d1285b5U, 0x3d56f1393dcfe151U, 0x3d3c3b3f3d4ebfe0U,
  0x3d53db5a3d3f54e0U, 0x3de56113bba46316U, 0xbc509f6ebb0851a3U, 0x3c9b529fbc799aadU,
  0x3dc45d1fbc35722fU, 0x3d1d09823dae8051U, 0x3dd2845c3d3a6cfbU, 0x3b5d9559bca00761U,
  0x3d0acab0bd54de45U, 0xbd5c7cccbc22da79U, 0xbc8d6b9ebd2f242aU, 0xbcca08c03cb62350U,
  0x3d3a872dbd29dc85U, 0xbd1160a3bc0fa293U, 0x3d25bcf43d94f33eU, 0xbc67442436795b80U,
  0xbcec5ec3bd7199e1U, 0x3a9eb1a93dbe53d8U, 0x3c27296dbd8e8a19U, 0x3c74a103bc8f6143U,
  0xbd407506bd4ffb85U, 0xbdc94a74bce0ccc8U, 0x3da9418a3df69596U, 0xbd644df83d10d721U,
  0xbdaec13c3c0b4d6bU, 0xbd587e003d4b9679U, 0xbbfaa25cbb49add9U, 0xbcab9da6bdab9a5aU,
  0xbdd1ffacbde3408bU, 0xbdf96b00be3c40f1U, 0x3d1cf1363deb5fefU, 0xbe1e84783db2b00aU,
  0xbd0ea049bd1db85dU, 0xbe0189cbbd264d2dU, 0xbd469f10bd529d7cU, 0xbda219d9bc71d355U,
  0xbe48df51bdda1211U, 0xbe12062ebcf1eb7dU, 0xbe3552643d6db2b6U, 0xbe2b369fbd068ddcU,
  0xbe07beacbdb882fdU, 0xbe29c2973e03bc31U, 0xbdaabe16bdcbbad1U, 0xbe00fb6cbda093d3U,
  0xbd4e9fe6bda9721eU, 0xbc783084bdde0de9U, 0xbd66da3a3d72a96aU, 0xbd42a5f6bcfcac14U,
  0xbdedba7bbd94b93dU, 0xbdeb9d0f3c9b76e7U, 0xbafbee98bd769549U, 0xbe099d8ebde72628U,
  0xbe438db9be2b7204U, 0xbe500591bc63eb0dU, 0xbe02da103da97c91U, 0xbe3d34ba3cd54bafU,
  0xbe8621f8be7f43deU, 0xbe3c7c76bc941803U, 0xbe22aecabe51d44cU, 0xbdc0d31ebe622c0aU,
  0x3da9ef7c3d30c2edU, 0x3d85b621bbe94de8U, 0x3d684609bcb06e42U, 0x3cd1f5893cd116dfU,
  0x3d92c1353c55ab84U, 0x3d597e113d5262b7U, 0xbe34fd953d9aaf19U, 0x3d2747013b891386U,
  0xbc9ebd9e3d2cb81eU, 0xbd53ad373c97ce34U, 0xbcf979643cd627d1U, 0xbd2b40af3ca30efaU,
  0x3cc8a77dbd2b3fc5U, 0x3a9233e93cc64754U, 0xbd72e734bc1f91a0U, 0x3ca74bd1bcac0d62U,
  0xbc952a13bd09ad79U, 0xbbaa3d753dd90ee6U, 0x3b13da2e3decfe99U, 0x3ca38f973e0c69d2U,
  0x3d88525e3bcad70cU, 0x3de29c7e3e0d205dU, 0xbde6bac43d30be82U, 0x3d25b99f3db5aa49U,
  0x3d9bdcad3c86c2b2U, 0xbbaf7b02bdf5a50bU, 0x3e1e24e53de30d4eU, 0x3d4edc8b3dcaacc1U,
  0x3ceffd93bca20380U, 0xbc9bf0acbca355c4U, 0x3999bd363d06eee4U, 0xbd161b9fbc798d64U,
  0xbb88d938bb42309eU, 0x3d0c44233e53f560U, 0xbdc62a683ddbec4dU, 0xbbd144cbb9a574a2U,
  0xbd47df68bd055d04U, 0x3bd575633e39c018U, 0xbd8ebe5bbce967a2U, 0x3d2d03c8bd94bf13U,
  0xbd1426983d9897e8U, 0xbbdb3b543d222f27U, 0x3e25c44c3db7056aU, 0x3d5cfb71bc9e9fe4U,
  0x3d6921923d5193ceU, 0x3c0357283e03ad9bU, 0x3a62d2463cfae9d4U, 0x3d92b9023df41613U,
  0x3d92fd5c3bd53ba3U, 0x3d0a851a3bf9a525U, 0x3db5d8dc3d33425cU, 0x3de526e63c8f96a5U,
  0x3cf80a983c02fdc5U, 0xbc97cfaa3e123b08U, 0xbde748e53c492b9cU, 0x3cd98fff3ce44ff2U,
  0x3b35b2a4bccd4b12U, 0x3d0c5b893d599056U, 0x3d5412823e101ae8U, 0x3cac0f133d5fc90bU,
  0xbd27065abd1a58baU, 0xbcfa418b3e0447ebU, 0xbd77917a3cbb6897U, 0x3d3ee42abdedc9f6U,
  0x3d91b033bd838398U, 0x3d53608fbb4be0a6U, 0x3defbeca3db0cb63U, 0xbd3f0c283c9a21b2U,
  0x3d7e90763a894d7cU, 0xbd26e1463d0bd509U, 0x3dd23934bd23ed0eU, 0xbc4524a83db74c5aU,
  0xbd6cb4f0bdbd85b4U, 0xbe1ca096bccf415aU, 0x3ce26ad33df9cec5U, 0xbe1caf463aa38334U,
  0xbdca6591bd2be96eU, 0xbe2bfb8a3cfbe993U, 0xbdfe27f1bd83112bU, 0xbdca1bb8bdc586afU,
  0xbd809414be0cf41dU, 0xbe0a4dadbaafc23cU, 0xbe46f9ed3dafa49dU, 0xbddb19833c06fc3dU,
  0xbe72e568be0cf4edU, 0xbd5770013d34a92aU, 0xbd910df4bdf0b8c5U, 0xbd12abf8be3c282dU,
  0xbdabe692bd4cf201U, 0xbcb809d7bcbcdff7U, 0x3ca8636b3d82580aU, 0xbcf4aa093dcff69fU,
  0x3d2de405bd0cc2f1U, 0x3da505b13cc7f358U, 0xbd9afd38bd2eb8edU, 0xbd9759fe3ce4c1b4U,
  0x3cb85cbabd5fe467U, 0xbcd79910bd0d5da7U, 0x3d3bb83e3d3bc125U, 0x3c378e053cab785dU,
  0xbc8535eabcbb4fd9U, 0xbd0941db3cdec2d5U, 0xbd902b69bd788921U, 0x3d01a5c3bd365eb4U,
  0x3c903c48bd17fc40U, 0x3cd027b4bd90077aU, 0x3c10e3793dba9da2U, 0x3d8e408a3e22552aU,
  0x3cc3de693cfda9a2U, 0x3d30b754bd387bcfU, 0xbb9f13473d89f8adU, 0xbaca3fc43d384925U,
  0xbb35c1f6bd79e149U, 0xbd359482bd6f8ef6U, 0x3d060932bda536c2U, 0xbcde5c0dbb8b67b3U,
  0x3da882fd3c95dfbaU, 0xbd4328b03e0ae424U, 0xbc5c8b763c9c22f7U, 0xbc95fb0a3d8ed960U,
  0xbd3b9527bd78198aU, 0xbcf523143e4ce8b9U, 0xbe02ed783e460022U, 0xbd5ca8c8bb886d9fU,
  0xbdaa56b4bbc5df36U, 0xbc9f42c4bd2d7f60U, 0x3e18042bbc36a5dcU, 0xbbecf1e7bc586657U,
  0x3e13b7cc3d8edfb7U, 0x3d47bbacbd67da6cU, 0x3e2e52bd3dd572e6U, 0x3ca9baea3d45df5cU,
  0x3dc710e73dca9b15U, 0x3ca77e173daf831cU, 0x3de1c34d3e033169U, 0x3e08ecd73db6106aU,
  0xbaf96b10bcf0bb58U, 0x3d5c46de3e33f46eU, 0xbd4dd16e3da81979U, 0x3d8e868cbc689937U,
  0x3b40ba8abcdd9273U, 0xbcb5b381bc8a8512U, 0x3da582d83ce5da0dU, 0xbd286ae6bd258b2dU,
  0x3c8f9abe3d7f472aU, 0xbce84c313b0e7c1dU, 0x3e1676623deaaedeU, 0x3a4343e4bcb3c33bU,
  0x3d887c433dcbc254U, 0x3de1b0a63c51e2d7U, 0xbc90dca93d21d9dcU, 0x3db7bd3d3c55dd2cU,
  0x3d964c403d813932U, 0x3e1514283e5fc066U, 0xbcafbd263d54e7aeU, 0x3e376cdc3e1a6223U,
  0x3d7c2c3c3dc0fb5fU, 0x3e1fb2493e638593U, 0x3d5a43163dbdaf56U, 0x3e4b57cd3db7fd20U,
  0x3e2a54c03e0b8c1aU, 0x3e0a71843e201956U, 0x3e0b13ca3dc0d93bU, 0x3e297c5c3cf1685bU,
  0x3dfd72923da7128fU, 0x3da1f6f03d6a347cU, 0x3e3c9a103d7c396cU, 0x3dacb0133df82e4dU,
  0x3e1ffa693daf7520U, 0x3e11ea8a3d870aa0U, 0x3d8b8c6c3dad19e6U, 0x3dd0328c3d8d11baU,
  0x3d8268923d96366fU, 0xbc89db363d2a3868U, 0x3e4730b33dbdcf14U, 0x3c0a9b96bd20690bU,
  0x3d5d0f20bc8ce346U, 0x3db9692b3d92e2b2U, 0x3c6541d03dd44ac2U, 0x3d9440abbc9d166dU,
  0x3c89814dbd7c2c88U, 0x3d34dd8c3db222f6U, 0x3e3ec36dbd4af767U, 0x3d642a373cecb961U,
  0x3e0c3b2dbd4ff28fU, 0x3dd3efbebcb557b7U, 0x3daa54c43dd749e5U, 0x3d3faad73d28f97cU,
  0x3da6ef4a3d2f87edU, 0x3d493f36bc1bf62fU, 0x3e390d563cbcfc28U, 0x3c98f1e8bd32e385U,
  0xbc91833fbd7e9743U, 0xbd6dcaec3df56589U, 0xbd8cb1cb3df06343U, 0xbcf5dc313c9bbfeeU,
  0x3c09b2d1bd914171U, 0x3dbb509e3a807752U, 0x3dd3ea173cd2c6bfU, 0x3dc5d6cdbcc83bf2U,
  0xbb90804e39dafef2U, 0xbbf01ce83d3589beU, 0x3cfb7acd3da6d7beU, 0xbca662ce3d6de88aU,
  0x3da748a63cf842d3U, 0x3e26be463daefb4aU, 0x3dd808083c93a749U, 0x3c28c42b3da9662dU,
  0x3d2c29853d859dabU, 0x3dcd7165bc52a5e0U, 0x3dc542d93c83ff8cU, 0x3d2c14cbbb8c7893U,
  0x3ce75c403be84d51U, 0xbbb1cef53d389e3fU, 0x3cc9a20f3d5ad3aaU, 0x3c0d05e13dd08292U,
  0x3d0e1595bac89ee0U, 0x3c762123bc87c9e8U, 0x3c9142c03e0dbc69U, 0xbd42f6d1bdd087f2U,
  0xbd251d0d3bbbe74dU, 0xbdc171c73cbd5b86U, 0xbbdfd966bd81bae5U, 0xbd847260bdd92e88U,
  0xbd0514ea3d205bb2U, 0x3cc960f03e0f2480U, 0x3c2ed2833e0be041U, 0x3d0c3f5b3dbc5395U,
  0x3bfa231a3c827b1dU, 0x3d8371a53d707db2U, 0x3ceb7933bcb16cc2U, 0xbccc5b0e3cb6cbf1U,
  0x3d9da2f03d26a0c8U, 0x3db613153d697226U, 0x3de26da83d886e25U, 0x3da616403df11385U,
  0x3d80b87a3d9fa562U, 0x3c975efb3e11248cU, 0xbd8c33d43d088429U, 0x3deb000e3d339691U,
  0x3dda38543d37f28aU, 0x3da862413e20c81bU, 0x3d38e93b3d65c64aU, 0x3dbffe993ddad557U,
  0x3dd3b9523cd4b409U, 0x3d67b4673d9911f6U, 0xbb4c3d053ddf67b5U, 0x3c9fec0d3d24fcbdU,
  0x3d3bc2e03d8694e4U, 0x3de7ffa43e288ee6U, 0x3e1c5bc63d9905e3U, 0x3de8ce963d298eefU,
  0x3d6e5d1e3d0b0649U, 0x3dbc11ed3e716b3fU, 0x3d034bdc3dcb6590U, 0x3db0d7ee3da64feaU,
  0x3defca593e140555U, 0x3e2ff7873e28decdU, 0x3df4f7a73dca4b92U, 0x3e4db68b3dbbab6cU,
  0x3d27b8733e1067abU, 0x3e0056603bd3b969U, 0x3e3a3c543dee2785U, 0x3e2204183d3a334cU,
  0x3d427c733e06d9ebU, 0x3db9ea403dfa731cU, 0x3e1d99213d61e952U, 0x3dfb22de3db34de6U,
  0x3e2911163e5165ccU, 0x3e5a591a3a38b72cU, 0x3d3464293e446368U, 0x3e587ddf3e5d6410U,
  0x3d8d74573d980cf5U, 0x3da7dbc03d793af5U, 0x3e1b5d0d3dbe4e49U, 0x3df7ccff3d7eb09fU,
  0x3de793e43d72e234U, 0x3deef8313d39f074U, 0x3d2789bd3e23defaU, 0x3e48de0a3db28e23U,
  0x3d06373b3d4f651cU, 0x3d09b04abdf51e73U, 0x3e591c4c3d734caeU, 0x3c42c8be3df6a9c1U,
  0x3e1ab8523dfac969U, 0x3e057280be275141U, 0x3c6478b13dda87b9U, 0x3e0abb5e3dd4d9b4U,
  0xbd02473c3cc2b448U, 0xbcfbe6a2be557feeU, 0x3e48cd623df0f9deU, 0xbd0d2ed43d9f63fcU,
  0x3de9fafe3e0ed555U, 0x3d419eaebdee2938U, 0x3ab2c5173db732d6U, 0x3d6b87aa3e02a4faU,
  0xbe4114bcbd9c5a87U, 0xbe096943be58dbe4U, 0xbe0602603da29347U, 0xbe5381ca3da39537U,
  0xbbed00edbd1e9224U, 0xbd92357fbde2e885U, 0xbe273e043bcc0a38U, 0xbcc72e5e3cf96e99U,
  0xbe1859fbbd1b4b41U, 0xbe3ea8b7bde96e48U, 0xbe102d2a3d627799U, 0xbe6b25813db9564eU,
  0xbd906d3cbc128709U, 0xbe44cfc03d84aef5U, 0xbe0fb397bdd06925U, 0xbd0b76e2bc5deb17U,
  0xbda79bfd3de44057U, 0xbe5792d1bdd31c85U, 0x3e4c0586bdcf047aU, 0xbe545218be342175U,
  0x3dcebef63dcccd98U, 0xbe47166f3cd43b5bU, 0xbe2f90ca3dc139d3U, 0x3e166b2abd9222afU,
  0xbdcb564abdef6989U, 0xbdf80a59bd80a603U, 0xbe537adabcf70c48U, 0xbd83354fbdd4136fU,
  0xbe025c94bdf9acf5U, 0x3c8a8304be2ef7a2U, 0xbe45a918bde86d3bU, 0xbdb238eabdefb5ceU,
  0xbde70fb7bd06fb4cU, 0xbdbcd6bc3cd7099fU, 0xbe7d09b83d618155U, 0xbd488765bde63bddU,
  0xbda15cd8bc07b95cU, 0xbd33dc5e3d450f10U, 0xbd0b1ef6bd5d0fc6U, 0xbd3141bbbd845e9cU,
  0x3d0afc6d3cc1ae59U, 0x3d87c17e3d09ceb7U, 0xbd28ae0b3d31f765U, 0x3d33d7d73d344a52U,
  0x3bc42392bd1f04c9U, 0x3d53f7debdc1ebbfU, 0x3d8ce647bcd8a6c0U, 0x3c9b5a103ca9cb6aU,
  0xbce6a23e3c8597dfU, 0x3cb598f23d1477c5U, 0x3d7f9dd63d62870eU, 0xb9ef457e3d95cb81U,
  0x3d44e4d53c729818U, 0x3d9c5aa13c49a7cfU, 0x3c6094803d372a55U, 0x3c4e017f3d1b52d0U,
  0xbd14a891bbfd38ccU, 0x3d20a12f3ca6b9fcU, 0xbd8196673d384592U, 0x3cf957d4bd730b8aU,
  0x3c0e31af3bf7d81cU, 0xbd90d86dbd495ec7U, 0xbb6a91ddbd722dcdU, 0xbc6225c4bd2936b4U,
  0x3d07d7953c79b1b2U, 0xbb335c4fbcb307a2U, 0x3aefe01c3d7004a5U, 0x3d07f498bc849b65U,
  0x3d5e8863b9435484U, 0x3dcc7fc0bdf95163U, 0xbd2695e53d28484dU, 0x3dd44f923d77fcb5U,
  0xbc04b7593d235728U, 0x3d9c06023d2a2eb5U, 0xbd1847f33da121b9U, 0x3d73905dbbaff64eU,
  0x3de21c553d0a6719U, 0x3df32555bbe8fe58U, 0x3d50a7013d849a08U, 0x3df43f3d3e13022bU,
  0x3d8460463ccde537U, 0x3d9199983d0ffef9U, 0x3db4eeab3c986955U, 0x3dba10cc3d0aa04eU,
  0x3dbfc2b73d27b77eU, 0x3e19e3b1bd04df0bU, 0x3d904faa3de6fa6aU, 0x3dee62583df941b9U,
  0x3c7ff6a03d9d2c7dU, 0x3d15da933de23308U, 0xbcc1df76b9490bd0U, 0x3dec0eac3b236aa8U,
  0x3ddb5f623d86e55eU, 0x3e401ab8bcecc2d0U, 0x3e0408d63deb579fU, 0x3df603713d7bc651U,
  0x3decb60d3d51da86U, 0x3e0096cebca2c8b2U, 0x3d4aa2443d74cfb9U, 0x3da5ed72bcc9df15U,
  0x3dd6a0033da9447bU, 0x3dfb030ebd321dd3U, 0x3dd23b983d918318U, 0x3da688b43c46e8d0U,
  0x3d88749d3cecc2e8U, 0x3d51cecd3d4d7df3U, 0x3d6360693d22097bU, 0x3db2fcfb3d8b3c58U,
  0x3e2217b43daaf498U, 0x3e1d7385bd24c42aU, 0x3c925dffba5f7566U, 0x3dd843293dc2883eU,
  0x3d66dd423b6ee399U, 0x3e19c10e3c96fc4aU, 0x3da6f32c3da5ee50U, 0x3d988b3e3d495cebU,
  0x3d8fd07c3e188957U, 0x3d72999a3d43382dU, 0x3da4c3933d129739U, 0x3cffa9aa3d8e790fU,
  0xbdb413253d18481cU, 0xbdf7cd5cbdaa7b02U, 0x3d7479803cb4c67cU, 0xbe3a256fbe3b7626U,
  0xbbf0c8ddbc8e6439U, 0xbe8219eb3dfeac62U, 0xbd94239f3d3e0c91U, 0x3dde67fabea92bb9U,
  0xbe084680bd8127d2U, 0xbdae64cbbba3568aU, 0xbdf4cb233c92cea8U, 0xbd547b7cbcd3cd15U,
  0xbe6776e9bdc0b697U, 0xbddb379a3d15abb5U, 0x3d5d1e0bbdbf2a9cU, 0xbe6eb941be2f5ca4U,
  0x3c84bcbebc713951U, 0x3de8835b3c8c474eU, 0xbd8baa3b3e06433eU, 0x3da74b293c9fae71U,
  0xbd188c00bd23cb6aU, 0x3d6a6a813cac8fd0U, 0x3d952dffbce2710bU, 0xbd3d15abbc94f4dcU,
  0x3d61670d3c38e2a0U, 0x3d7b72bc3daf6f0dU, 0xbcb410933d2315d4U, 0x3d79f2183c052ec8U,
  0x3c02c6043cdb066dU, 0x3a9adfb23dd2dbf6U, 0x3ccced173cf4dc2fU, 0x3d2756613d0c7ca0U,
  0xbd6326043d3a198bU, 0xbd50da63bdaf13f3U, 0x3dc6c97c3db39379U, 0xbd51d5053dcb1890U,
  0xbd666a70bb40e861U, 0xbd8a318abda5d15aU, 0xbda1c02ebd374c79U, 0x3da4dd293cd46f4bU,
  0xbdd216c33c11a307U, 0xbd1df055bc9a8e3eU, 0x3d2892b13cf3a7f1U, 0xbd9112d83dfcd25cU,
  0x3b595766bc5d07e2U, 0xbb2c736f3cf243b1U, 0xbd3b25603d3d7d69U, 0x3a8f73a73c3d01a2U,
  0xbde1d7513ced6b71U, 0xbd5c6283bd69de60U, 0xbd44cdea3d3fc3b1U, 0xbd5a8d743d5f864dU,
  0x3d1cf26a3cdf3377U, 0xbd4d44f6bdd2c9deU, 0xbda0b12abbda053eU, 0x3c42f6583d3cf153U,
  0xbcc53b83bd8db6c5U, 0xbcb506dc3d2655e1U, 0xbdf5ec403d6bfa2fU, 0xbd33ef2c3c35695aU,
  0xbadccfffbc734b75U, 0x3d852c6fbc976772U, 0xbdcaf9bfbd34599fU, 0x3b959fd53c4c202cU,
  0x3b3cd27f3d66b861U, 0xbda784c1bc59eba9U, 0xbba0ab49bc147832U, 0xbdc5a0b63c6d00d3U,
  0x3c9e7cae3cd73376U, 0xbd95bb913bbc056fU, 0xbd36d5733d947c5dU, 0xbcfd30dd3d8d69c6U,
  0xbe04ae3c3d4f5a5aU, 0xbc00295abdb72353U, 0xbccdce703d3a44f1U, 0xbd3ecf893d92a3a9U,
  0xbb9855bebc6cf9f1U, 0x3d16407ebd61e34aU, 0xbda8b0463d6670d4U, 0x3d787b723cc0ed93U,
  0xbd103d49bbe14722U, 0x3c36e9ebbdcb31daU, 0xbc2c7ea53cfd89e9U, 0xbd2c32733c3399d4U,
  0x3c71ac073a3936e4U, 0x3a9883fcbd87821dU, 0xbda7e5243d941cd7U, 0xbd9144463db7c35cU,
  0xbd5a064fbd5a71f2U, 0xbde4dc15bc94eb2cU, 0xbe01537bbb374ea6U, 0xbd828a413d2588d3U,
  0xbd782a4fbd66ab7fU, 0xbdfd570d3c005da7U, 0xbddd2a31bd15fb77U, 0xbcd61090bcba2956U,
  0xbcb68338b902c146U, 0xbd81180dbdae2bbbU, 0xbc2705c93c32c7a8U, 0xbd224c29bbc122c6U,
  0x3d054cd23bad4a41U, 0xbcd21313bc699edcU, 0xbdcba8cc3970e610U, 0xbca9ab9a3d380f99U,
  0xbc5cbed13db9e681U, 0xbd9d872fbccc26e9U, 0x3d9cc143bcd19bdeU, 0xbd6a695ebde5fa76U,
  0xbd747ff2bc9ea84bU, 0xbd916f533d9ca4e0U, 0x3d6e0424bc0d1b68U, 0x3de8273cbdfd33a6U,
  0x3d2769fdbd00a1d0U, 0x3ccb62373d1d6167U, 0xbdc403c6bd3c8d47U, 0x3d93a068bdb72925U,
  0xbde6f4b5bd8f02d1U, 0x3c5adce63dff44c8U, 0x3c83b27bbd325ad5U, 0xbc164071bdafe0d8U,
  0x3d9dee2d3c866240U, 0x3d78a18a3abe34f0U, 0x3dfe8ef63dab3b44U, 0x3d12532e3e5bc72bU,
  0xbd566ee73c9a398cU, 0x3e868cfebd68e0b5U, 0x3e7672523d8cdbdcU, 0x3e0752de3c56f03fU,
  0x3ce3d496bcabd4efU, 0xbd03dfd53df8053bU, 0xbcfd686c3d55f267U, 0xbceec0783e0437a1U,
  0x3e5a792d3de46e59U, 0x3d91db7d3db821c7U, 0x3e30f2ac3c82817aU, 0x3d1231d33e9bb448U,
  0x3c8384b33d1d8904U, 0x3d6586d13d580fd9U, 0x3e02d1023dd4c099U, 0x3d5b1d76bcf9123bU,
  0x3db99d943c7bf37cU, 0xbd44f9383d97ea93U, 0x3def5c9f3de0ab67U, 0x3dcd2b6d3da6a5bfU,
  0x3d4a75303d348769U, 0x3d40bd5e3c3dfdf8U, 0xbc39ce9e3d821f1bU, 0xbca85e593d501ccfU,
  0xbda77ed8bcac1d68U, 0xbccf99813d3c30b5U, 0x3df5fb3dbd4e36adU, 0x3dbc4662bd2c6752U,
  0x3d7c05323ccc2f3cU, 0x3d2facf6bc8b3052U, 0xbcd628503dc700d0U, 0x3c3bd3c03db4f9e9U,
  0x3a26ed17bd47ca6aU, 0x3ced40e23d18ca92U, 0x3db31fde3c8c6809U, 0x3cf702183d806b30U,
  0x3d45ed5fbd873eb9U, 0x3d8baf093d5c8f93U, 0xbcd1effc3cf232a8U, 0x3d6813d73df10043U,
  0xbd69ebc13b9896b7U, 0x3dd60444bd6abdf3U, 0x3d05d7553bb25c77U, 0xbd3c65043d36e176U,
  0x3d2ba8803d40f0edU, 0xbc86120b3d866d88U, 0x3d34ecd73c47504bU, 0xbd3bf7dd3d3721c1U,
  0x3cda4096bd1f5ff3U, 0x3d7f39f4bc1166bcU, 0x3bdfff1a3cd98fceU, 0x3dee45323d6b2c24U,
  0x3d8b563e3d33f129U, 0x3ba06af43d180936U, 0xbe1c6825bbb248eaU, 0x3ccc5ed23d6f9337U,
  0x3d0353f63d9b7203U, 0x3d08f1153d9e9bd2U, 0xbcf28a54b931d100U, 0x3d4d323b3e05dc44U,
  0x3cc60072bc4b647bU, 0xbc6f0ff0bd3db737U, 0x3d3643da3c9c0e28U, 0xbb3cbea43d5f9e9bU,
  0xb9a45dc03d0b792eU, 0xbd24fda33c6146d0U, 0xbd759dd23ace1702U, 0xbd5d3a1a3dc00493U,
  0xbd9d1d8b3cef75feU, 0xbd0c46253d973871U, 0xbafde9c53d9090f8U, 0xbe0773e5bd0194e5U,
  0xbdbb1befbd5d1528U, 0xbe65f832bbf8eefdU, 0xbdcefb8bbd52c66eU, 0xbc32e4513d3e639aU,
  0x3d7c7ec23d57080bU, 0x3d131a8c3d0fa933U, 0xbcc6f24a3d082310U, 0x3ca595663c4ea7a4U,
  0x3d0bcbc7bc865c52U, 0xbdc0b23d3cd78c1dU, 0x3dd31b833d891f85U, 0xbdd390593dd1f0a1U,
  0xbd1caa8a3d59bd02U, 0xbd28c64ebd6d6dc2U, 0x3d0176f9bdf90353U, 0xbc5b68fdbdd435d7U,
  0x3c9186793ca35051U, 0x3d0b7a7ebb15d20dU, 0x3dce61ca3adf7e6aU, 0x3d77590cbd3e2310U,
  0x3d3635273cb57780U, 0x3e0635483d95ffbeU, 0xbd852b38bd50a740U, 0x3d3f9668bbb722fbU,
  0x3d060aa83d0e36f8U, 0x3ded47413cfd76a0U, 0x3c9283c4bcb4d4a3U, 0x3cf281c7bd0a29ffU,
  0x3d84ffb73dbd8952U, 0x3c4b09f9bd0cd4e0U, 0x3dd00b66bda59981U, 0x3b300c24bca1eb6cU,
  0x3d64de633d08fd23U, 0xbd84d2773b0e46c6U, 0x3cf43f443cf61857U, 0xbc46b6ee3d400e7aU,
  0x3d080db83c4af64dU, 0xbba53ece3dd54719U, 0x3cb4c5d53e126a0bU, 0x3d0d21453d87bf76U,
  0x3cd9afacbd71d3ebU, 0x3d9b37923c74f05cU, 0x3d52759b3d1802e8U, 0x3ce055303c5c8dabU,
  0xbca254083c462802U, 0x3d8bd44cb7deb8e0U, 0x3db81abe3d607e89U, 0x3c9481db3d9273a7U,
  0x3cd58f753cff1526U, 0x3d58b39cbc56d97aU, 0x3df147cd3dbc6c84U, 0x3e194acd3d1e38d3U,
  0x3c8e39513c0c3983U, 0x3d3e9e983c896133U, 0x3dbcf6ec3c9b564bU, 0x3a7627563d087667U,
  0x3ded80513c61ffb3U, 0x3d999b2abd2d3203U, 0x3dfbad1bbc0378d0U, 0x3d7916473dcc4dfdU,
  0xbc788324bca5c026U, 0x3d1d3b1abc872bfdU, 0x3c5474313c9c8095U, 0x3ce4039e3c80346dU,
  0x3d1876b53d011489U, 0x3dcfc7c63d62b7c3U, 0x3dedc4153cff86a8U, 0x3d6aaca83d6745d7U,
  0xbcd2c0893a79133eU, 0x3c8f62893d48a7f3U, 0xbb1c1f213dd175eeU, 0x3d432dc53d9e0586U,
  0x3d9db8a3bd227bc5U, 0x3d8077083d74baf6U, 0x3d7f6278bc6944e5U, 0x3c759f4d3dac2e31U,
  0x3d0dc3e6bc85f490U, 0x3c0d8467bc863843U, 0x3d7153e63d1e9d04U, 0xbd1d9f483cd12ec3U,
  0x3d33d1553aa65827U, 0xbd981273bd0db7ddU, 0xbbd1cd453b4a4565U, 0xbc3c92e33d2718bcU,
  0xbd7e96363cb1bfa9U, 0x3b8031093d078eedU, 0xbdd70ee03d64557dU, 0xbaac76443d95939aU,
  0xbba5e7bbbd29b6abU, 0x3ced26b7bc89158dU, 0x3d828e14bd1ceb35U, 0xbba4e55a3d7691c4U,
  0x3db62a74bd1d3250U, 0x3c7fd1123c8f7380U, 0x3c12aecc3d7c5df5U, 0x3d8dc9603d782304U,
  0x3d543b9f3c9975bbU, 0x3c7242f83d765abdU, 0x3dc337013bd35d08U, 0x3b8430363da36cfaU,
  0x3c6bc87e3c41646dU, 0xbacd511a3c823ce2U, 0x3c91bcf73ca52241U, 0x3c8d545bbd0d8919U,
  0x3ce4183e3cdd4afdU, 0x3c20e2573db08ffaU, 0x3e18b7563c15e1d9U, 0x3d9546793cd314cdU,
  0x3d9698d2bc8d2b98U, 0x3d31b1f0bd7fbb93U, 0x3db547ad3daf5636U, 0x3d58d7993a1789eeU,
  0x3d91408c3da2aa12U, 0x3e2ba9db3d188a42U, 0x3dbe6173ba6f47a2U, 0x3cbc55d73d342991U,
  0xbd8669f7bd3bb0d8U, 0xbd58082538bf2bc6U, 0xbd330bc0bc3532d5U, 0xbd515540bd74fe0aU,
  0xbe01ff40bd2029e7U, 0xbd7a10a53d4d980eU, 0xba0d13833d4f0644U, 0xbc6d83bbbdbaefb8U,
  0x3b90601dbd023a1bU, 0x3d3f77503cbce14aU, 0xbd9628633c8644ffU, 0xbcc31c943e1860eaU,
  0xbdadec23bd1e3014U, 0xbce5e909bd8bcb76U, 0xbd02e4fab9918a02U, 0xbd3efa09bda7b60aU,
  0xbca58f203d0499a6U, 0x3c242e583c89bdf4U, 0x3dbe45823d8d03ecU, 0x3ce5286abd80bedbU,
  0x3d27fb43bc8f7d14U, 0xbce97dd43d8b1ccbU, 0x3cea30a73cc0ff28U, 0xbd0ea5923d63120aU,
  0x3d074b343c9e1d36U, 0x3be6fbfc3d6f6b0bU, 0x3c2295a73d87e600U, 0xbd8c03743d059fc0U,
  0x3cdd937ebc90d7ebU, 0x3b00de843d67bc09U, 0x3d9c1862bca21990U, 0x3d23602d3c54a6ffU,
  0x3c8b55fa3bd46eeaU, 0xbc0a476dbbc08a57U, 0x3e0fde843e1006bcU, 0x3d1f91063e03d306U,
  0xbcc84f8cbd010ab9U, 0xbc1941fb3e0100ecU, 0xbddc1ce53d01a1eaU, 0x3dc7f10e3cbfd413U,
  0xbc520aafbd3feb4bU, 0xbd46b7493b49fdb1U, 0xbcf13a823d827aedU, 0xbd85cde23c8b0821U,
  0xbd3faaa5bd5761adU, 0xbd0f33933dd94b3bU, 0xbe0a4a63bc2d825fU, 0xbd73dab7bd751cd2U,
  0x3bded16fbd97d2cdU, 0xbc800af5bdaab37dU, 0x3bb2e4f53d444cafU, 0xbc8cbc3d3d08b0abU,
  0xbdfffa5cbdb1f1eeU, 0xbcedf361bdd07eaaU, 0xbd9965c6bd9a33bfU, 0xbd7780efbdee4520U,
  0xbde050e2bd62806aU, 0xbc695f653cd173eeU, 0xbe27801e3cd997f8U, 0xbd7b6eb43d974986U,
  0xbab167c8bc13c15dU, 0xbd6c367a3dd3dd67U, 0xbd024a553c9da741U, 0xbd9a42403db64573U,
  0x3cd4aef2bd036792U, 0x3c590a9d3d07fb89U, 0x3d4c2de73d714d35U, 0x3d8658453cb4bc38U,
  0x3da9855f3cb85f34U, 0x3b801ec83d584896U, 0x3ccacd50bd070915U, 0x3d4574fe3c5fb2a4U,
  0x3b467092bd32bb62U, 0x3d66c5debd8c5842U, 0x3d26ed3d3d7a063aU, 0x3cca7657bc6f591bU,
  0xbdcc419d3cfa9e40U, 0xbd065d23bdb52805U, 0x3b228c9c3d20b75bU, 0xbd18b166bcd12e33U,
  0x3c85406ebd00d56dU, 0xbd0e36ce3cce7fe4U, 0x3c4119dd3ce9b15bU, 0x3d3be3bdbd089b3fU,
  0xbd8fa92a3d083afcU, 0x3d561d703cf66d75U, 0xbd769c56bc0e4dceU, 0xbb7a310a3b92e994U,
  0x3c8555563c619536U, 0x3cc3320ebc05a74dU, 0x3d4e93683d08b3c6U, 0x3cda7f20bd2f7a53U,
  0xbba17aa2ba3b6421U, 0xbd8212803d89ee59U, 0xbd64fee7bc5c21cbU, 0x3e0720fd3d9070edU,
  0x3d1cb93c3d2c4a1fU, 0x3ddb6b993deb0c66U, 0x3cd017373d94f09bU, 0x3dc381333c065cd7U,
  0x3d8710d9bbf07060U, 0x3d8e420a3e01aeacU, 0x3c8c8d9c3cd4068cU, 0xbd5ddcd1bc06f8ffU,
  0x3d96be0abcff3e22U, 0x3d38823ebc70a79bU, 0xbc5f06003d7b6512U, 0x3d0be296bc40d1e7U,
  0xbc69f7ffbd0278cbU, 0x3d4e67a13d04fd81U, 0x3dc53d24bd185caeU, 0xbc961716bd0f8145U,
  0xbd58b4503cbbf1f3U, 0xbc381ffa3db96bb4U, 0x3b88261fbd10823bU, 0x3d294c9cbc24e423U,
  0x3cd545513c971ac9U, 0x3ca7bcba3d94b16eU, 0x3e02790e3ca8dd7eU, 0x3cca7c783dec56cdU,
  0x3cdc93113d188a2dU, 0x3cde55ffbd19ef9fU, 0x3de91a603d48ae78U, 0x3d3e0e373cdd9dbeU,
  0xbd931d30bd49a008U, 0x3c14110f3c87efceU, 0x3dee60cd3bb435c0U, 0xbd28d24cbd2ca0f3U,
  0xbcbadb83bd7d4b53U, 0x3cfcf5bb3d8cf03cU, 0x3b0cbbb93db8c42aU, 0xbc6c8d16ba83ee0dU,
  0xbd44a82dbd1892a6U, 0x3cfb88163d5734c3U, 0x3ceae391bd797859U, 0x3d8969d13c8d0e89U,
  0x3d6537323cfb0c61U, 0xbc888d453c187610U, 0x3e1313b5bd88a82bU, 0x3c56937fbd5f8cd2U,
  0x3c0777adbc1d823fU, 0x3be3b5ab3b79fd43U, 0x3c65204c3b83c665U, 0x3d84d8abbd542b1fU,
  0xbd1531b93d20ea8cU, 0x3d0439023ce93c7bU, 0x3c1fae3f3c8b9c8aU, 0xbd125ee6bba1de2dU,
  0xbd98b8053ce70d57U, 0x3c764ce43e08fcdaU, 0x3d1e0c1b3d464440U, 0x3d6224e2bd933746U,
  0x3d8c8555bcb24b76U, 0x3d8ff02d3ca020cfU, 0xbda6367cbd73c562U, 0x3d31440f3d1fdd9cU,
  0x3d14d1a83d654d69U, 0x3d767f3e3db138dbU, 0x3d07e5873d415f77U, 0x3a7b6bf7bcceb95fU,
  0x3d893d303c87867bU, 0x3d81e534bc5eec05U, 0xbd8832e23d3e69f7U, 0xbc2496a33c20ca2bU,
  0xbd1293bdbd5573f2U, 0xbcdf8baabd6dfaa8U, 0x3dfcbd25bcaa44ecU, 0xba96dc02bd6a80f0U,
  0xbc02bfe03d6c73cdU, 0x3c2fbb273db7c6bcU, 0xbd1803a43cae5453U, 0x3d1a62d4bcb50caeU,
  0x3ca6083b3c8b76daU, 0xbca792c73d8fea90U, 0xbd82f3a43c3533cbU, 0x3cf23c223c2e1961U,
  0x3c5606e43dd2e693U, 0x3d580bc0bcfdd80bU, 0x3d6e28c13c067ae7U, 0xbc42ae5f3c3557f3U,
  0x3be1e2943dbf09daU, 0x3d9b769b3d4354ebU, 0xbdd8387e3df03d62U, 0x3c5a9e1ebd5f6591U,
  0x3d8e1839bc714729U, 0x3e00702c3da460fdU, 0x3c9eb34f3cc47540U, 0x3d8300cbbd22079fU,
  0xbc36e27ebcfb4735U, 0x3d6b442fbcff50b0U, 0xbdb384e93c7e0e86U, 0xbc8c5892bdab618fU,
  0xbd1876063d2650d6U, 0xbd3e93f4be04496dU, 0x3d20933e3d6c5d61U, 0xbc47174e3cc4da74U,
  0xbd4c3e663bf2613eU, 0x3cde3784bd5fa70cU, 0xbdff1a97bca70041U, 0x3d902981bd284f9cU,
  0x3c236cac3d6aedceU, 0xbd7227f6bc53089bU, 0xbcc178013a6ff9a1U, 0x3ae89d413d4eb66cU,
  0x3c066ba93c76425cU, 0x3d4ea82fbcf7d31bU, 0xbdb5b8103d374bceU, 0x3d19c6ec3dc2cc53U,
  0x3d6b2a6d3c4c5fc4U, 0x3d093d113c9fd0c2U, 0xbce7f14d3c6b16c9U, 0x3ce0822abdbb4687U,
  0x3c759e653c1d750fU, 0x3c80081cba9bba19U, 0x3da6cf473d7552e3U, 0x3d541a59bd7ae595U,
  0x3c9c68653ca0ab76U, 0x3daf49c53dc8f51aU, 0xbd4a9310bcaee84bU, 0xbd2d218e3d9e4b03U,
  0xbd0ad6eabc015879U, 0xbaa61e343d892defU, 0x3d4c8b2ebcac21f5U, 0xbd01d56abbb2b907U,
  0xbc537b253b988ad8U, 0xbd4113f63c7d4eb4U, 0x3e1d2e93bc870c85U, 0xbcf6dbaebd9ca56bU,
  0x3c4d2bc53ccc8e59U, 0x3d276e0f3dd83fd5U, 0xbd3b1961bced2b59U, 0x3c81ab98bd1400d6U,
  0x3cdd003dbd20760fU, 0xbcb211823d99fcd1U, 0xbc98310e3d137e15U, 0x3dcd6884bdb42de6U,
  0xbd8f68a6bd430a06U, 0x3d34e00d3db564d9U, 0x3b827ba6bd3f8c44U, 0x3cdd2a603cddfeacU,
  0xbc1509803c2350c9U, 0x3cd935903d49f073U, 0x3e37823bbcede180U, 0x3ca9e5d03d9367deU,
  0xbd1f1844bd50d2d9U, 0xbc87cc713dfbc0a2U, 0xbd3460e1ba402807U, 0x3cf93d7cbd4f24fdU,
  0x3cebdfef3c82040aU, 0x3d51083a3d2012daU, 0x3ca2cc1d3d75bdccU, 0x3d7e11c4bd0f7d71U,
  0xbd1539cebd464972U, 0xbc9c3b9d3e122871U, 0x3c23d5e93d2d2dc7U, 0x3d0c2b29bcd2b7f5U,
  0x3d8f65cf3d030466U, 0x3ca7963c3dfbd154U, 0xbd268e0c3c30303cU, 0x3d4bdcd23d834b25U,
  0x3afe331e3d0c92a8U, 0x3db352fb3dc12db4U, 0x3e50726d3ce3aaefU, 0x3d64c45cbd649154U,
  0x3d89750b3db930dbU, 0x3d67c6d5bbe6f246U, 0x3de747983d78adacU, 0x3d828693bc6a981eU,
  0xbc8ffed23d69c81dU, 0x3c83f482bd551a82U, 0x3e4f23e03d930527U, 0x3e0ba6173d066ceeU,
  0x3de6d7253d5ec8b2U, 0x3e249ce73df07052U, 0xbc94b5883d652af0U, 0x3e1fd0313dcfe217U,
  0x3cd11b973d04364cU, 0x3e2efadb3cdaa491U, 0x3d47db7c3d82e2d1U, 0x3d606e083d4f4491U,
  0x3d421e1c3dbaba9eU, 0xbc4579de3da418e2U, 0x3ca70b443d7ba9dcU, 0x3c6adfd13c35e444U,
  0x3d8dde123e0b3d12U, 0xbc138f17bd0282d4U, 0x3d7988813dd552eeU, 0x3d80bee53ddccc16U,
  0x3d2b5c7e3d927ec7U, 0x3dbabfe23b8bb365U, 0x3d1d9a8b3d2b6223U, 0x3cb33e733d4e0d0fU,
  0x3d824dc23dc88eceU, 0xbba5de0abd31e5a8U, 0xbd09b6033e044f9cU, 0x3d06b3a33d4abf8fU,
  0x3b16bea4bc90e3ecU, 0x3d23f5bb3d8de6ffU, 0x3d091037bc5ff596U, 0xbc9b8a1bbc4f36f9U,
  0x3ccf853f3ae314eeU, 0xbe045e76bbec2b73U, 0xbdf387723d0fc8d9U, 0x3d240dd13c985ce2U,
  0x3db6a90abbe3f01fU, 0x3cbeea9ebd515508U, 0x3db356743db1f7f8U, 0x3d65be303d0c8be8U,
  0xbd7b4d23bd0944a3U, 0xbd6853fd3c8a467aU, 0x3ceb95273d3075c2U, 0xbd9a3883bcd6b8acU,
  0x3d8fad2ebc69ddebU, 0x3d4f51c0bd259a73U, 0x3c1b24573d7c4872U, 0x3d8b03093d01c63cU,
  0x3cffe3673d811c5dU, 0xba93e127bd06889dU, 0x3d2b7a713d6b104cU, 0x3cd231233d3e2cb3U,
  0x3d2dac223d441fd3U, 0xbce9824b3d813ab3U, 0xbccbe197bdb5f87cU, 0xbd38349a3d706671U,
  0xbd0e93de3ba13b20U, 0x3d0276583a3e1244U, 0x3d0bcf9e3d1e2003U, 0x3c3f227fbd364afdU,
  0xbdb7f35b3b871793U, 0xbdec9a34be5576c1U, 0x3dd09b2cbe0a11fcU, 0xbe272fbfbdfc2abbU,
  0xbc81130c3c208309U, 0xbdbbef423df0ef2bU, 0x3c466baabc571676U, 0xbc0a1b88bdc8bdbcU,
  0x3d572dbdbd5a5c12U, 0x3b06a4d63e036532U, 0xbdc1f0af3ccd518aU, 0x3cafd68e3d768119U,
  0xbd28b2bbbd8a9372U, 0x3dc9b5633d9ca082U, 0xbe22c294bdd928ffU, 0x3d0db72ebcf67baaU,
  0x3d37a0793d7ce65bU, 0xbcf459d53dbfe62aU, 0x3e392a8e3cb48044U, 0x3d596e333e14f02dU,
  0x39b4fb17bbc24c10U, 0x3dc212f83e0321b8U, 0x3d38e0d13d69461dU, 0x3db3eeb6bb8985bcU,
  0xbc6eff1fbce2f1d8U, 0xbd8fe4653d87ec51U, 0x3e241acc3dc40cfeU, 0x3c2fcf813dd439acU,
  0x3cacbbc33d0e894fU, 0xbd1750a63e432ea0U, 0xbd85afce3d013470U, 0x3da9ce843cbc204eU,
  0x3d4caf36bcd9cd18U, 0x3dd7c4e03e2d681fU, 0xbb8f7f623ce98b87U, 0x3e284d873d5c032eU,
  0x3d955a303b9b9922U, 0x3db7f55c3db266d3U, 0xbc2e8bb43d08cd9bU, 0x3de68af13d9736a0U,
  0x3e04503b3def0f81U, 0x3d0d4de3bc76c7fcU, 0x3e0e5b7b3cd74d6dU, 0x3d36ec653bdaabf2U,
  0x3dafd47a3daa17cdU, 0xbb3fcb363cced0e7U, 0xbcf0b37d3c96d11aU, 0x3d80d9d83d093bd3U,
  0xbc2d353e3c9c655cU, 0x3c051b193d1cfd39U, 0x3d175e2e3cfe2a3cU, 0xbbe5387d3d5bad0aU,
  0xbb0366babc26c825U, 0x3c8a54833d54106aU, 0x3bd2e4bbbc49b7bdU, 0x3d1e3570bdab3b7aU,
  0x3d89e7d13cf58b0dU, 0x3d8729553d94d4c3U, 0x3d3720a53d1d8b12U, 0x3d787d083c3bb47cU,
  0x3c19cae73c03c4b0U, 0x3d60f9e23d824e1cU, 0x3d13f5643dccb906U, 0x3d5907de3da39736U,
  0x3d4a31d03d0b46f0U, 0x3ce31f463dd72970U, 0x3d85036b3da918ccU, 0x3db4c0e53c7ace8fU,
  0x3d9d8942bbf816c8U, 0x3d323ee03c9a7c50U, 0xba80695f3d3683ecU, 0x3d4f18293d592ab0U,
  0xbc6640b5bc1dd990U, 0x3cfbbbfd3d83191dU, 0x3d709dc23d3570a9U, 0x3dbc59a83cc779a8U,
  0x3d82c480bc3c2832U, 0x3dd82e6f3d828b07U, 0x3d05fa0d3d1eb4daU, 0xbc9b9b83bbf95686U,
  0x3e01e59e3dae0167U, 0x3df3c6cfbd7caf8cU, 0x3d9c69a83da876c6U, 0x3dc225c13c98dcfdU,
  0x3d10df993d3e4a9aU, 0x3d8935233caae73aU, 0x3d45d7fe3d5aa794U, 0x3c8ec36e3d415a65U,
  0x3d03cfbd3cad47e9U, 0x3d1095a2bab36b53U, 0xbb758561bce438ceU, 0xbc24de3c3c856c56U,
  0xbd22af6f3c89a90eU, 0xbbf5f5d83d1ed385U, 0x3cc601e23da3c4c0U, 0xbc358e7d3d4982a3U,
  0x3c49246abcea5784U, 0x3d1442683b81d501U, 0xbd5d30f63d193b56U, 0xbce75501bd06b88bU,
  0xbd16ce093c1242e5U, 0x3d622a60bd879c78U, 0x3c49c479bbf7c093U, 0xbafe289a3d6f1ff5U,
  0xbd974b88bd97502eU, 0xbe61ed25be9c3b3aU, 0x3c830642bd5c85c5U, 0xbe1dc8dcbe771907U,
  0xbd882828bd9b46ccU, 0xbe746406bd927b68U, 0xbd872a7cbd14c744U, 0xbdfe7a4abdec50d0U,
  0x3c42e6edbe652ea1U, 0x3d5227383e70857eU, 0xbeaf77ad3e3de11aU, 0x3dcba5ec3dc39ef3U,
  0xbe591842be085d97U, 0x3d0de5693db16d11U, 0xbda4a507be431e74U, 0xbdbd941bbe92a308U,
  0x3dcbd0253ae8643dU, 0x3c001ec53e072b11U, 0x3e3c2c953d11be95U, 0x3d8b6586bd8d422dU,
  0x3bc08f17bd1e8df8U, 0xbd3aa9a83dfe775fU, 0x3d6c40f3bd442d9dU, 0x3ddfa8983b9098e4U,
  0x3da18185bd1ceafeU, 0xbc9c8e483d061650U, 0x3d8d33da3d67f97bU, 0xbd6bee72be0bcdadU,
  0xbc8547e6bdb1e0a1U, 0xbe1544c33e22dc29U, 0xbdedd025bdbc8456U, 0x3d61b169bded9bafU,
  0x3d7c9177bcdbcaf6U, 0x3d7a2d523e038d3bU, 0xbcdb69433c6f5437U, 0x3e1973543d2a4018U,
  0x3cb01609bb6219b9U, 0x3e3ddc3d3d0a2ca8U, 0xbd3017913d50475fU, 0x3cc47a3bbd8b2d09U,
  0x3d8d2ee83da57ae9U, 0x3d7396cc3cf76008U, 0x3e10339a3d30c4ecU, 0xbc40a9613d51a0c0U,
  0x3d795d1d3b311148U, 0x3cc7074abd80028bU, 0xbc7cd5ec3c38cb68U, 0x3c7496803ba1e615U,
  0xbc891094bd825cf0U, 0xbba58c8b3da3fe01U, 0xbc1a61afbc11fb26U, 0xbcfbd2363cc87210U,
  0x3d1e9136bc069a44U, 0x3cac9a46bc492eaaU, 0xbd8e9342bdb92031U, 0x3d1e574bbcf73cfaU,
  0xbd92d40bbd0d444eU, 0x3caffab03cbd1f66U, 0x3dc5631f3d86ce6fU, 0xbc25fd313cb32a7eU,
  0xbca9acefbcd40a98U, 0x3dfbd4453c21fdc4U, 0xbd4d9ae5bcc3980dU, 0x3c5e0835bcc57a1eU,
  0x3988aae23d2b4a86U, 0x3d0ff17dbc9d3c99U, 0x3d5fc8dd3d47fb2bU, 0x3a3361c13befaed2U,
  0x3de181e33d49a391U, 0x3d3c2f34bc9884bcU, 0xbd767fdb3d3b7bc7U, 0x3b1a2ccf3dfa7e9eU,
  0xbc618a45bca1d71aU, 0xbdd027f5bcefa441U, 0xbc5c3f9a3d61c728U, 0xbbb1c8663d15542aU,
  0xbcb4dc30bc655fd3U, 0x3ad958e1bd0cdd18U, 0x3ca946c63c867436U, 0xbd6bde08bd680633U,
  0x3cfd3f6f3d098b99U, 0x3d3acf32bcf5f3d2U, 0x3d8d3a783cdc5380U, 0x3c9722fdbbb985e1U,
  0x3c61ce17bceb9da6U, 0x3d93a8fabc1a69d2U, 0xbcbae16bbd2d3973U, 0xbddb5a5b3c8c7922U,
  0x3bb0958bbc7c14fcU, 0xbccbf6863c301c0aU, 0x3d499ba43d5b3d3cU, 0x3d3636a73cf89160U,
  0x3d1be6ffbc3e393bU, 0x3cea0ab3bd8d6f08U, 0x3be26a283d3e6922U, 0x3d07307d3db8d83fU,
  0xbab0e0a8bcd54ad1U, 0x3db58b3c3c97bee7U, 0xbd1dee1bbe2725f0U, 0x3ce41a0b3e20da2cU,
  0x3d14bdaf3d1ab18dU, 0xbc54d71ebc8b5321U, 0x3c8bb9d4bd854482U, 0xbb949485bd04aae1U,
  0xbdd73a4abd309069U, 0xbe483546beaee1f5U, 0x3dd4332c3beeb2d6U, 0xbe85ac8cbe5ba921U,
  0x3b55bab4bd837013U, 0xbe8b2b733c821b7eU, 0xbe4c35bd3ca34731U, 0xbd9f8521bc2ca089U,
  0xbdbbedfbbe19ec68U, 0xbd0ea2e03e0c278aU, 0xbea7f0ef3d24972fU, 0x38d57f7e3d404a2eU,
  0xbe7260aebdf32b5eU, 0xbc24c1e9bd8f59cfU, 0xbc7218f6bddbcb33U, 0xbdc6b552be5777f0U,
  0xbc0896813d2a7a76U, 0xbd15a1ae3c9c1f7eU, 0x3d8496b33d5d9b59U, 0xbca48d2dbc24f2b0U,
  0xbc81a8a33ce788f1U, 0x3cf1620e39596574U, 0xbd43f6ca3abdda4dU, 0x3df732423d0edc2eU,
  0x3e008e82bc7d1debU, 0xba820bb63e312c89U, 0x3db7b9513d3d9c2dU, 0x3d4c898cbdc2a683U,
  0x3b8517e8bc949c0eU, 0xbdc90aca3d4aae8fU, 0xbce77b78bc975ea7U, 0x3d8cf661bd868e50U,
  0x3d8c30f93db61870U, 0x3d0926bf3d59bbbaU, 0x3da42bb33d03f035U, 0x3da9e1023d820c85U,
  0xbcf343a33cc3e09bU, 0x3d4ea7c6bcad491dU, 0xbcba39fcbcf9fce8U, 0x3ccd9e93bd5bd14dU,
  0xbbac3b063ce79149U, 0xbba9f3d8be442c04U, 0x3dd6e2bf3beb06daU, 0xbd5387cc3c94369aU,
  0x3ccca3c83d7d71beU, 0xbc3a1625bdda1fdcU, 0xbdd309d73d8d110eU, 0x3ce5ce81bbaa8eadU,
  0xbde7302bbdf7a962U, 0xbdeef01ebdc98dafU, 0xbd8296db3d483911U, 0xbde5b17a39b279f8U,
  0xbd2632a0bd6d6248U, 0xbda4100abdc7f8f5U, 0xbe8c5b66bd2f6dc9U, 0x3c126b41bd249ab9U,
  0xbe4f8666be2174b4U, 0xbe2db5b8bdb5c103U, 0xbdf6244e3d146517U, 0xbe3f1bc9bca5410bU,
  0xbddf2365be101485U, 0xbddcad14bdead48cU, 0xbe75e8b7bddb8df4U, 0xbd8df215bd9ab7a9U,
  0xbdcd3d12bd495164U, 0xbc9115bdbdb654ecU, 0x3ca2ba923c739750U, 0xbdb6a2653d57f173U,
  0x3d27bec13b3d5029U, 0xbb41fc70bd1f7322U, 0xbe273e8dbd8f42dfU, 0xbd6d9f44bbcd4f73U,
  0xbe334ddebd6ed6ebU, 0xbdc6923ebe0ffd2fU, 0x3b93677b3d710f3aU, 0xbdcad4b03d8e09d3U,
  0x3b2de51fbd4770e9U, 0xbd3488d1bd8ca815U, 0xbddad76cbd8df36eU, 0xbc57a9f9bc6bc54aU,
  0xbdb4f38fbdafa1a4U, 0xbdcde75ebddbfc0eU, 0xbde586df3c2f5769U, 0xbcb458833b399df2U,
  0x3d3cd66b3cc3c5c3U, 0x3d89d07a3cf08076U, 0xbd639a893bd145b0U, 0xbd6422b03dbd68ecU,
  0xbd8f7ffe3cade596U, 0x3c03d435bd9209a1U, 0xbc5843ac3c365a68U, 0x3d3378663dc76410U,
  0xbd20f9723d62f553U, 0x3d92c85cbd5e8457U, 0x3d652a0f3bd47ef5U, 0x3d1ff860bb02cf4dU,
  0x3e2738c53cd52623U, 0x3e118ce53e0aae5dU, 0xbc91a2c0bd19122aU, 0x3e1dcf3e3e332a9eU,
  0x3da88d443d876bc5U, 0x3e3020373dfba699U, 0x3da8254d3d8e3d9cU, 0xbca7a8323d0300a8U,
  0xbcedb291bd0df5beU, 0xbe0d45ccbe554435U, 0x3dcc39f2babf0562U, 0xbe930d05bdeac063U,
  0x3bf59b9dbda69ecdU, 0xbe86c1ac3c922acaU, 0xbdba842abd03f4d0U, 0xbd3ee907bd314181U,
  0xbe0f607abe2a194dU, 0xbddabeac3d89cd72U, 0xbe7e9edd3dc8d577U, 0xbd62fccb3cb6e8b4U,
  0xbe6fb816be312f9aU, 0x3a373acabde31449U, 0xbe375871be36824eU, 0xbda88b3bbe0f236aU,
  0xbdb2f311bcf2724aU, 0xbd5f3e36bd916d27U, 0x3c6bc0153c7e80f3U, 0x3c053e8e3d981d8cU,
  0x3d7771cebd0a0354U, 0xbc1128323bdd1969U, 0xbdc84fa2bd25fcacU, 0x3daf89563d784d5aU,
  0xbe0a362ebd07d190U, 0xbd987f71bd96a438U, 0x3c6624643c3a3d60U, 0xbde5b2b73d0e48ddU,
  0xbd94f576bb84d4aaU, 0x3db3b7f0bdfafc79U, 0xbe381708bd81b672U, 0xba09a416bd15cd4bU,
  0xbda0f6c8bb18b0d9U, 0xbc5073fdbe107cadU, 0x3a16b2493cddbbeaU, 0xbd88fbe93cf26d31U,
  0x3d80b9f33cfff10fU, 0x3d27beb7bd8c9f61U, 0xbd8ae7233d591b35U, 0x3aa257b23d820357U,
  0xbddcddf9bd6f43ebU, 0xbdf88c12be2281a2U, 0x3b316a753d9a759eU, 0xbe0634153d7f669fU,
  0x3cca4f97bdaea7a5U, 0xbe2abe13bda981ceU, 0xbdd1433dbd7737c3U, 0xbd74d7e43d809842U,
  0xbdfbcdecbe14ee2fU, 0xbe208eefbe424c54U, 0xbd7c12043cb56d0dU, 0xbe0888b8bc6845f2U,
  0xbda4ed50be040fd3U, 0xbe0ae0f4bd6fb079U, 0xbe1f8a7fbe33b5c9U, 0xbe54b870bdfab38fU,
  0xbe54115fbe2b9749U, 0xbe452f7abe882a81U, 0xbe13418ebbf59719U, 0xbe8c0cf939f49c18U,
  0xbe31e333be78c78bU, 0xbe41ee2dbda6d37bU, 0xbe5faadabe5255b4U, 0xbe14f394be0ded1fU,
  0xbe2ef450be340d43U, 0xbe06759cbe625fc0U, 0xbe4a7fb63c8c0ec6U, 0xbe1ad0a33db2fbcdU,
  0xbc7a1f45bdb72f7fU, 0xbd9b0df6bc6d5088U, 0xbd220f12bdd1be7cU, 0xbe1d68cb3cf39b85U,
  0xbdfab65dbe0d6d65U, 0xbe381233be877808U, 0xbe4c363c3b74cd9fU, 0xbe885c143cc8eceaU,
  0xbd9cec32be392c01U, 0xbe918d7d3cdf22e3U, 0xbd0cb3d6be2c8416U, 0xbe1c41d13cd902daU,
  0xbe2a6349be30f0abU, 0xbe0cd958bcd221f2U, 0xbe759efa3d109f84U, 0xbe0a32613c81a640U,
  0xbe56e9ebbe4b4262U, 0xbe09afeb3cc57435U, 0xbdd15213be401361U, 0xbe3597d4be13b43cU,
  0xbd74e1f13d045be1U, 0xbde7dc38bc71399cU, 0x3c8e1d243d67760aU, 0xbdbe23fe3cb0efa3U,
  0xbd7398cfbd60b927U, 0x3c8cd23bbd2640faU, 0xbe0c9c10bca4841cU, 0x3c9119df3d180178U,
  0x3daa042b3c8e0c88U, 0x3dabfd7bbdebfdccU, 0x3d49f89ebcb58edcU, 0x3e70d2563e64a286U,
  0xbca43f6e3b8c82a6U, 0x3e7879f6bda5fb5fU, 0xbcb902533d4c418aU, 0x3b8c3e1ebae7a5f1U,
  0xbe26b207bcdb1b48U, 0xbe50e92ebe21db2eU, 0x3da30d073c53a707U, 0xbe8c0507be39e824U,
  0x3d32558cbd84d2f8U, 0xbebe568e3dd677edU, 0xbe4c9572bd599c0dU, 0xbe00dd4d3d39ddf0U,
  0xbdd24ac2be309198U, 0xbe048b5a3b93e5fcU, 0xbe8abcc23d8f65ebU, 0xbe287f21bd78427eU,
  0xbe622711be2b6a07U, 0xbe4af7f9bceb6eedU, 0xbe09597bbe700f7eU, 0xbe44499cbe7edf2dU,
  0xbda72902bdfb0433U, 0xbda1ed3fbe45e496U, 0xbd2c38503cdf7693U, 0xbdeea3a03b1fec70U,
  0xbc93deb4bde0f7a6U, 0xbe02b200bd969877U, 0xbe04e9f2be0a5408U, 0xbdd6ce1bbc89d7acU,
  0xbe1420b0bdfb85a0U, 0xbe15861abe3af491U, 0xbe766fd8baa24f83U, 0xbe787ccabd8a2ddcU,
  0xbe24e05dbe43ddacU, 0xbeac263abdd28bbfU, 0xbe2853cdbe92515dU, 0xbe85d66abe2609a7U,
  0xbe381246be3fb5c7U, 0xbea2da32be856b00U, 0xbda7a4353d42034dU, 0xbe87f7093b5ba1b4U,
  0xbe55d026be365d8aU, 0xbe7894f3be408349U, 0xbe5558b0be49501bU, 0xbe625effbe664776U,
  0xbe9771babe4de627U, 0xbe9da095be8e3b0dU, 0xbe903d143bacaf11U, 0xbeab0a1f3d1bd37fU,
  0xbe0d903bbe49a3a7U, 0xbe8a6a55bddc2437U, 0xbe88d862be2c073eU, 0xbe097e49bdb5fcd9U,
  0xbe4f46e1be225bb5U, 0xbe879ffcbe4f9131U, 0xbe8d81b33d0f190dU, 0xbe662364bcc2c26cU,
  0xbe4f412dbe18104aU, 0xbe59d3c7bd995a1cU, 0xbe6915afbe556c7cU, 0xbe6c1909be396a06U,
  0xbe4e3c2fbe804351U, 0xbe56cc8ebe61b939U, 0xbe69be633d39b99aU, 0xbe6ee8a93d030776U,
  0xbe20d0e8be665304U, 0xbea4ad51be0c45d9U, 0xbe25f52abe2e8297U, 0xbe6b5a01be143bc8U,
  0xbe61b6f7be61ddaeU, 0xbe93b453be8c7517U, 0xbeb0f33b38e2ff5aU, 0xbe4b51d23d5dc934U,
  0xbe8fef06be6736f7U, 0xbe874ff2bde6b52eU, 0xbe14de8cbe845819U, 0xbeb3cf26be55620dU,
  0xbe601d97be6c660aU, 0xbe6514acbe3fdf0cU, 0xbea265b53ce2f5a7U, 0xbe7fb9ad3bec3462U,
  0xbe4e2f0cbe7fa6ffU, 0xbe5913cfbcf3b4deU, 0xbe024262be34a411U, 0xbe8e80edbdf9de24U,
  0xbd28e151be5ae116U, 0xbc5f2054bdcde60bU, 0xbdf3d7983db9b8fbU, 0xbc7772c03da44662U,
  0xbd97d02bbe39af9eU, 0xb98f17873d2f4e3eU, 0xbc80cc28be1cdd59U, 0xbdebc9a9bd8b2411U,
  0xbda40dacbc0f11e0U, 0xbb4897afbc033162U, 0xbb34af8939b7f047U, 0xbd0e1c2b3cba775bU,
  0xbd78f3abbc0fbb0eU, 0xbd87090fbd9b49e4U, 0x3e09b7553c84ae0aU, 0x3cf8f24ebe4e6fecU,
  0x3d12f21d3d7fb3c7U, 0x3d040eedbcb61f53U, 0x3bf714933d131252U, 0x3e1ddf4b3dd5dc44U,
  0x3db33a483cece589U, 0x3e91ddef3da17555U, 0xbcf428d33d8a04a2U, 0x3ac4f71a3e41dc2dU,
  0x3d5c7c16bdac6d79U, 0x3d462734bd7b940dU, 0xbd39996d3d355e79U, 0xbd2573e5be05d0ecU,
  0xbd66d5d9bd18dc66U, 0xbe28fbc3bdc0b57eU, 0x3e0f3e8cbd7ac2a4U, 0xbdf2f062be362f5dU,
  0xbd955882bdc89f17U, 0xbcef23e23cbc0bc2U, 0xbd90bf1f3bfd667bU, 0xbd3b44fa3bf18f36U,
  0xbe0e41d3bdb61349U, 0xbde4eb2ebd5aa294U, 0xbd1acc3fbde9e909U, 0xbdd3d3e6be4cb1d4U,
  0x3b93e37dbc9989c5U, 0x3d819c413cdd89c7U, 0xbdfbfd823be9d969U, 0x3d219b9c3c89af36U,
  0xbcd5cc08bd46ab30U, 0xbdbb3be1bd32e67fU, 0xbdd82d14bde2d838U, 0xbdd155e2bd20e603U,
  0xbccf92bcbdc68645U, 0xbd779205bbfa1f2fU, 0xbd0b713c3c08892bU, 0xbd60b61d3c33ac5cU,
  0xbdf95fcdbda50e89U, 0xbdb95375bd648e35U, 0xbd8aae5abe016803U, 0xbdcc6688be384d99U,
  0xbd625ebbbe229a01U, 0xbdc31e74bdae9dfdU, 0xbda0434e3d7a8d61U, 0xbdae4974bc9c941aU,
  0xbcdbbda0be256a3cU, 0xbe616d67bb8d83caU, 0xbdacb554bdcda24aU, 0xbe3ba66dbdef2b47U,
  0xbd572e95be339cc9U, 0xbd870ec2bd8e1be5U, 0xbe984f5e3c2ed0d1U, 0xbd9c03e2bb6f526dU,
  0xbe209158be4c7711U, 0xbe88c5a13d8b01f6U, 0x3c14d9aabe840511U, 0xbe924fa5be76ff0bU,
  0xbb995c62be1d9d10U, 0xbd8c2f6ebd4d27c3U, 0xbe6f64473c8d6c2cU, 0xbd41c3b3ba44f6b7U,
  0xbe434b6abe3228eeU, 0xbe19c0943d1152f3U, 0xbd8749f3be37194cU, 0xbe53481abe523889U,
  0x3d9d6e3abddbef22U, 0x3d8534c63cacc34eU, 0xbe55bd0a3da107f8U, 0x3d505ce73bc612e9U,
  0xbde48997be0e1648U, 0xbe532d943db1194cU, 0x3d289abcbe124c68U, 0xbe5a2c25bd270e20U,
  0x3d658800bdc33878U, 0xbd1afffebd0d23efU, 0xbdcf059f3cef33faU, 0xbde5d4903c507f4dU,
  0xbdaf2d8cbe185556U, 0xbe2767e43d4ca0c1U, 0x3d60e4cdbdc7f51dU, 0xbe892259bde35c10U,
  0xbd207ff3be287be6U, 0xbdbaaf8dbd1fa8d9U, 0xbdb4d5e23d51de3eU, 0xbda05c713d00ceefU,
  0xbe4f68cabe8b597dU, 0xbe45cdeebcef820fU, 0x3bb9f47bbe3efd9fU, 0xbe99805ebe33a25bU,
  0xbcb62044bd4485d2U, 0xbde3ff79bd859860U, 0x3cfb3a933d4de38fU, 0xbd2002023ca56f42U,
  0xbd6ece0bbe30b901U, 0x3cf1fedc3b05360bU, 0xbce452d8bcb653e3U, 0xbdb6c5c4bd122f8bU,
  0x3d4353ed3ca12ed4U, 0xbbc61915be0becaaU, 0x3daecc9bbd6c2d48U, 0x3c8c519dbcc79d46U,
  0xbc1ba0733d361e8eU, 0xbcdd16a03dc70c2dU, 0xbdf149d73ce89773U, 0x3d5c1e18bdaa1793U,
  0xbda05450bd09f1e2U, 0xbe0e31adbd7b8adfU, 0xbdf942f7bcba9ea2U, 0xbdfdb3b23d183d99U,
  0xbda7d6a6bcdd1a16U, 0xbdad0ec43cacc4a8U, 0xbdc14770bd6c5d18U, 0xbd3ec154bcf63541U,
  0xbd22507dbd08ebf5U, 0xbdc05448bdae3344U, 0xbbe1997abbe1423dU, 0xbd7301f83cd4ce54U,
  0x3cf428c43d6655aeU, 0x3d375a9dbd36274bU, 0xbe0a768e3dc70d6cU, 0x3d27352b3bdb2ca5U,
  0xbc7a63b9bd696548U, 0xbce4943e3c55cecfU, 0xbcb5c6f43aeae868U, 0xbbde752fbcd09cb7U,
  0xbc8e69b13d6bef19U, 0xbdd4d1e73d2f063bU, 0xbcb971a7bdee43a1U, 0xbd7987dbbd5b538cU,
  0x3d9e46edbd118de5U, 0xbd79209bbd8a7255U, 0x3d8c0cbf3d0534f3U, 0xbd25b82abcd0d923U,
  0xbd5d1912bd8dd61eU, 0x3cd9c7d4bceec0baU, 0xbdd43e7dbbb9002eU, 0xbdc13e48bc84ba27U,
  0x3caf9401bd8cef64U, 0xbb99be743d2c84f3U, 0x3c1c229cbba7ab28U, 0x3c3a17e23d51f065U,
  0x3be58d81bc0e0750U, 0xbc311794bcf80278U, 0xbd7f3e533d0d88d7U, 0xbe47d569bd92d1e0U,
  0x3cceebd6bca897b5U, 0x3d985d4d3b42d4e2U, 0x3da7f909bd236b13U, 0xbc45de353bd347b4U,
  0x3c27f7f63c6a0501U, 0xbe4c85493d9c6f65U, 0x3c84e185bbe4f731U, 0xbde1a382bd0645fdU,
  0x3a8b6709bbde2f86U, 0xbc63068abbc95f28U, 0x3dc89ab3bc665e8eU, 0x3b3e47ac3aa6e4adU,
  0xbd581e27be0aa6abU, 0xbdec210ebcac7b7eU, 0xbcd1f7debd31ecfeU, 0xbc2b5760bdb1e488U,
  0x3d313ff2bdbe73a2U, 0x3c16358f3d53cc40U, 0xbc95907ebcb0dc5cU, 0x3c0ac3743d206b47U,
  0xbd3f3e50bd6a2bf1U, 0xbe0739763d92bbb1U, 0x3b06c3c0bd4412a0U, 0xbd05e90cbe05e6d3U,
  0xbc7e4f02bd001869U, 0x3bb7dfa33d94d2e1U, 0x3c3cd0d6bc7c9703U, 0x3cc1874abd776f8eU,
  0x3cd0346abd8d6c1aU, 0xbb2279963ca5bd43U, 0x3ce9a816bdc94fe8U, 0xbb73278dbda7f9efU,
  0x3d02909c3d1b7961U, 0x3da44b5f3dbf8be0U, 0x3dd0a6b93c9e5ef4U, 0x3d99a4b63d3412baU,
  0x3d1006d23d09271aU, 0x3ceac7cc3ce5ef34U, 0x3cff1dedbc58267bU, 0x3bacae4f3d0a4367U,
  0x3ddb9c5abcedf60fU, 0x3ddfc275bcedc04cU, 0x3d9b5c483989e7f3U, 0x3d68b918ba2a30bcU,
  0xbc21d0653d1e2a92U, 0xbce89b703cc2024fU, 0x3d545b7fbcb75f2bU, 0xbd5afec9bd5bc341U,
  0x3c078350bd9b6509U, 0x3d140468be247f78U, 0x3db07c12bb10e547U, 0xbd99a6643ca7cbccU,
  0xbe0d423fbdd10cf3U, 0xbdb0b74cbcb118d3U, 0xbc417818bdc741ccU, 0xbdfbed57bdea2255U,
  0x3ce234fc3d701336U, 0x3d8816b8bd1904beU, 0x3dce49553ddf449eU, 0x3d89fe3fbcb2be08U,
  0x3b9b99b8bce5c608U, 0xbc07365ebd938755U, 0x3d0001093c866a5cU, 0x3de4455a3c022adcU,
  0xbd3256fcbda01b31U, 0xbb179ce1bdbab061U, 0xbddfe080bba7a63fU, 0xbc9c4ae6ba9a7c27U,
  0xbd733f12bd627a33U, 0xbe1e2931bdd15512U, 0xbbebee36bde4de61U, 0xbdec2eb3be14cd42U,
  0xbe0c91e0bddb57a7U, 0xbde3dd61be78ad39U, 0x3c6a51673cc434f6U, 0xbe3217963dbddda0U,
  0xbde4aa10bde431c5U, 0xbd775c3ebe208ee0U, 0xbd2eb42fbcb79b43U, 0x3cabfb00bd550702U,
  0xbdec9442be130551U, 0xbd4ed5973dae9279U, 0xbe7be293bd094417U, 0xbc4801af3c8a0285U,
  0xbcbc501abd823c43U, 0x3d63c7763dd26c5eU, 0xbdf88749be0b09c4U, 0xbdb909903ce2eeffU,
  0xbd96c60e3c0aa032U, 0xbcc0d22fbc9a8f38U, 0x3dcfc9c73d35ec43U, 0xbd8c8c8b3d7b5c8fU,
  0x3d0fcb86bbf6b7a5U, 0x3ce7f13d3bfcb890U, 0x3d53c1b7bd910be1U, 0x3bc74fab3d4936daU,
  0x3db548b8bc4eb893U, 0x3df0e5003e1915bdU, 0xbdb687c93c71322cU, 0x3daee70ebc70363eU,
  0x3d7161543c242addU, 0x3ccc56d63e0f877fU, 0x3e0883d53bc42d74U, 0xbd564d5e3d6b7911U,
  0x3e060f223d64d63dU, 0x3da2aac63d63748fU, 0x3dd83ec73d479b52U, 0x3e0b07153d813b84U,
  0x3d3f4be83d971d37U, 0x3df5db0d3d283081U, 0x3e00527e3dd52d6eU, 0x3cd83cb8bd59c419U,
  0x3d2965333d90dac9U, 0x3cea45763d0bacf0U, 0x3e0c538dbc9e867bU, 0x3cda03ea3d37ebc3U,
  0x3d282d863b404367U, 0xbc2a6432bc551701U, 0x3d8fc8ea3d757457U, 0x3c846f103d95acd4U,
  0xbd54a0d0bd4f5d6aU, 0xbd4b8477bd66880bU, 0x3da64db93ccb0119U, 0xb9bfafaa3c8b1f6bU,
  0x3be31967bce08e1cU, 0x3cd73cf0bd351857U, 0xbcd2bc31bd64c246U, 0x3d197eb3bcedea69U,
  0xbcaed2c6bca14703U, 0xbcf67ff0bd00cf93U, 0x3c32131c3cc35ac1U, 0xbd467afebc5e9094U,
  0x3d8ab34dbd538451U, 0xbcf93a3bbd9093a4U, 0xbe18c1f7bd388ac3U, 0xbcce9397bcd0ec04U,
  0x3cbf4a463cb17a38U, 0x3ceb8bc5bc9c44daU, 0x3aba8eb1bc10a712U, 0xba3f39b73ce4953fU,
  0x3d1f38d5bd15265aU, 0x3dae1afcbc097eabU, 0xbd10507f3cdca838U, 0xbc30f9d43d1779c2U,
  0xbc444e0a3d145cb8U, 0xbcb694f4bdaeb0f2U, 0x3dbf2a733d024a8fU, 0xbc33fd213da3f44bU,
  0x3d6b025c3d3dada1U, 0x3d459e20bd2a1334U, 0xbbc93257bc21ee03U, 0x3d823e213c80f46eU,
  0xbd5557bbbdab5468U, 0xbe156198be5d8e90U, 0x3d3388aa3d0ed2ecU, 0xbe194bf63c87c4b2U,
  0x3d999b75bca81bb0U, 0xbdb1e1d1bc6a4d67U, 0xbe0af85ebc2cc668U, 0xbab322073d29e07eU,
  0x3ca6daed3cc178d9U, 0x3b13029abcdbc625U, 0x3d9ffb013dd442eeU, 0x3d45b281be12b44fU,
  0x3c2fa9b93b06e516U, 0xbdf8d3c8bdc93c5fU, 0xbd9f1f84bd6b35e4U, 0x3c9b06613cf3357bU,
  0xbdfb071dbd9b0572U, 0xbe093abe3cab8afeU, 0xbd1dfbafbcd8e460U, 0xbe1288193d90ddb7U,
  0xbd8d3cbbbd8b175bU, 0xbe0b2d97bdb99604U, 0xbd814827bd26dc3cU, 0x3c2dfc45bda18762U,
  0xbc713cd7bdc8a6feU, 0xbd0ef872bd713972U, 0xbd2305a03d9ab407U, 0xbd1cc6cf3e363110U,
  0x3d34ebf9bd701169U, 0xbe8913a2bcb8e222U, 0xbdf796afbd8ba936U, 0xbc1f1c3d3d8459f4U,
  0xbd8cfee4bd912876U, 0xbd19df913e08ed92U, 0xbbac2c5d3d299c6dU, 0xbc225dcfbc2cbf60U,
  0xbe4e3fe1bd6b7dd3U, 0xbd4ea2bc3db2ac02U, 0xbd486092bc35f94eU, 0xbdac9fb8be2ae277U,
  0x3ded5e543d45b864U, 0x3df694f93cb0a7a8U, 0x3dc170bb3d7e1128U, 0x3de45c28bd361c74U,
  0x3b75ff2d3ce301edU, 0x3bc474ed3dfe3699U, 0x3dfc5a8fbc411500U, 0x3d0d3f653d0de87eU,
  0xbba0caf13cd61e6eU, 0x3d3896643e2b7a83U, 0xbb6c58233da887e8U, 0x3db5699e3e1c32fbU,
  0xbd2a73fa3d477abeU, 0x3e1de4943dd0f749U, 0x3d87eb3d3d8d4b21U, 0x3dbc87523dc09fb4U,
  0x3dbb2c9d3de05cfdU, 0x3d8137f83d0eb1c7U, 0x3dfc171dbd09a05aU, 0x3d74e5c23bbd8812U,
  0x3e18c1df3e19cb74U, 0x3d9504643dc38b3aU, 0x3d12a43e3df002d3U, 0x3d9162a43e754ba6U,
  0x3d54be763d55694bU, 0xba8c84ee3d08bfd7U, 0x3dd848203c0fb2aeU, 0x3d4cf3be3c016c79U,
  0x3cf043163c9b00e5U, 0xbc94fcbe3c5b2f4eU, 0x3d0120ff3d211c0dU, 0x3da3e9633d08c6adU,
  0xbc95138ebc261f69U, 0xbc40a447bd3b83ebU, 0x3d4a8b82bbfb8fa4U, 0xbc8214ed3c1a9edfU,
  0x3cb363ccbc3773c0U, 0x3af45c143d448b9cU, 0xbdf4b7cabd42b732U, 0x3b7a8b42bc4aeab7U,
  0x3d1f0e643ca254d2U, 0x3c6539b83d0a1391U, 0xbe16ac703cda719dU, 0x3d8697d93d0c4602U,
  0xba2ad7943baf86b8U, 0xbd27fcfe3d040bb2U, 0xbc53cbf8bd22cedeU, 0xbcc35e9ebce7bf46U,
  0x3d8eadd33c298997U, 0xbba4735ebc5d0575U, 0x3d29c37c3b322fb1U, 0xbcdcf5903d8ee77aU,
  0xbc9072623cc545c8U, 0x3c4c3e403d1301f9U, 0x3c9054323c498bcaU, 0x3c1b11cabda7c5d0U,
  0x3ce2df3fbda46653U, 0x3d066f30bd9a90baU, 0x3bd66c0a3d03564fU, 0xbd9a03e8bd624a4fU,
  0x3c206af5bdc4f835U, 0xbe16c187bd151875U, 0xbd9c35abbddf91afU, 0xbce9e6febd3dad5eU,
  0xbdc80103bdf33cedU, 0xbd68a6a5be3cd2afU, 0xbd5dcd373cb58be0U, 0xbdf332933c332eb8U,
  0xbe07f630be5a6f66U, 0xbe723e33bcd8d687U, 0xbd960020be557fe7U, 0xbe2f72c3be165f0aU,
  0x3cb287b73d1b1f03U, 0x3cec7a63bd19e9e7U, 0x3d3fc6d33d87619dU, 0x3d98ead1be14fa2cU,
  0x3dc6cc853d52564fU, 0x3c7d5139bd4a6ff8U, 0x3d263a6f3cfc3225U, 0x3d6333743d41cb20U,
  0x3d358420bbc53285U, 0xbd81f0613afb08c8U, 0xbc014bf4bd08ba38U, 0xbdb2b069bd80573aU,
  0xbd0a0fdcbd807333U, 0xbe1136da3ce0c87aU, 0x3d06fb703cb1f283U, 0x3b5cb67fbda8c8e6U,
  0x3da0410ebce37899U, 0x3c188b273c2c4e9cU, 0x3d875c0cbd9eac5bU, 0x3d17bb753c5206a4U,
  0xba4c410dbccbbe6eU, 0xbd21df863d4b491bU, 0x3d7c1c8ebdce0570U, 0xbc8254fbbb91ef86U,
  0xbd03b4df3b22d2eeU, 0xbd3cf7693dd553fcU, 0x3de3693abcb3bc07U, 0x3bc69337baa205f7U,
  0xbd4d6e9a3d53acb1U, 0x3de0b1f63e118c93U, 0x3d90d3743d0847aaU, 0x3d96997fbd8b27f5U,
  0x3dc172853dace561U, 0x3d89abe9bc02aeefU, 0x3e00ba943c94ea46U, 0x3ca4840a3c57e137U,
  0x3d9114053d9f11a0U, 0x3e04ca513d270273U, 0xbb2dfe883c2752a0U, 0x3db646903d8b9f5dU,
  0xbc10f3e53d5a91beU, 0xbcfd71273decc55bU, 0xbd26a9c13cb79cf8U, 0x3d07484b3d6c29e8U,
  0xbd2a6bc33d96621dU, 0x3c3642f23e1d0441U, 0x3e0349293d312606U, 0x3d9458973d57aab8U,
  0x3d86a8873dbc834fU, 0x3e0b12323cca27efU, 0x3c27679ebd1af14aU, 0x3e1a229abc24f2e2U,
  0x3cc3e8dd3d6b90a8U, 0x3d9bbacd3c5eccabU, 0x3c536d213dd3fb14U, 0x3cfc23d83db8646dU,
  0x3d38349b3da6bd32U, 0x3da5b9e03d2cf87bU, 0x3e0da673bd4f9877U, 0x3d49cd63bd27d2b2U,
  0x3cc084ce3d54b5a7U, 0x3c298f393c50504fU, 0xbd3f67953cb03090U, 0x3d4ff0473d442abbU,
  0xbdda884ebd805b74U, 0x3c739c6e3d1b7594U, 0xbd4afdfebd36c059U, 0xbd4f4f08bc0a346cU,
  0xbd4dd05ebd39aaedU, 0x3d4205f33cf7b4d7U, 0xbdd708f5bbf31a76U, 0x3d3f9911bce5164cU,
  0x3c8fecae3d04168cU, 0x3dcb0b863d3708bfU, 0xbda40caa3c939eacU, 0x3dd9f9573d6aafb3U,
  0x3d8e7d913d816684U, 0x3de11ef63d9b2ce1U, 0x3c4bfbf1bd107510U, 0xbc824e373dc1165eU,
  0x3d6d15003d330e8bU, 0x3c56177dbd306e6fU, 0x3d9fd943bd34b530U, 0x3cbb51583c972e1aU,
  0x3d6c3f553d00e8e2U, 0x3d7c83243b6301a9U, 0xbcbece2cbcc06ab2U, 0xbcf104f13d6804d0U,
  0x3aba0165bd4185faU, 0xbd7db05dbd6039e5U, 0xbd272d7fbd2609eaU, 0xbd567157bd1cb1ffU,
  0xbd490025bcf83e9bU, 0xbe0d24d5bd14a45eU, 0xbda4ac68bd8821beU, 0xbcc11d283c0168a8U,
  0xbccdfe6ebdac6e17U, 0xbd5fcb14bcec0d7bU, 0xbcaf74e6bb866af2U, 0xbdac957f3c2fe48cU,
  0xbd358b16bd593cb6U, 0xbe57815b3d33e654U, 0xbdae53efbcf39342U, 0xbdbb276cbd098735U,
  0xbd53b0433c982140U, 0xbd43f0db3d04ce8cU, 0xbdbdc8e23e1228faU, 0x3d328365bd51655bU,
  0x3c9a157a3bf2d3c5U, 0x3cc03d9abd0c1267U, 0x3e1f8b6bbd7bb518U, 0x3d76d25e3d1b1988U,
  0x3d40fa703d7a94cfU, 0x3d96a8973d055c15U, 0xb94fe0003d1ac94dU, 0x3d4cc4243d900f35U,
  0xbbf84ab43d8445cdU, 0xbd9107ea3d5f6915U, 0x3ddfcc123d680fb7U, 0xbc5680a2bce229ffU,
  0x3dc77fbb3cfd109fU, 0x3db296e63d8bb1d7U, 0x3d5d28053d132561U, 0x3e058669bb6f820bU,
  0xbd1fa817bacc553dU, 0x3c54a0a6b8ab79c2U, 0x3ca5d4843c9dea8dU, 0x3d542c65bddd57e4U,
  0xbd96be823d3ac5e0U, 0xbd8b1dd43db0569eU, 0x3e0b809a3e0ccc55U, 0xbd9f31633b4c9590U,
  0xbcf0aa5f3c0101f9U, 0x3c54bdd13d7b1078U, 0x3cb08c2c3d343b2fU, 0x3d9f733ebd673c42U,
  0xbbea53b0bc2256d4U, 0x3d6c2898ba949577U, 0x3d6e7c063d181477U, 0x3dcf427a3d98fa00U,
  0x3da267263d8d1107U, 0x3d0b17a33e3481adU, 0x3cfcab243d6eff91U, 0x3dbd3f6f3dac2d0fU,
  0xbb11d3723d8de6deU, 0x3d26c9febce9257aU, 0x3c98fceb3d6f644dU, 0xbce15edb3de5fa7fU,
